0
0
0
0
0
0
0
0
0
0
0
0
0
f
0
0
0
0
0
0
0
0
0
0
0
0
0
0
0
0
0
0
f
0
f
f
f
f
f
f
e
e
0
0
f
e
f
f
f
f
0
f
0
0
0
0
0
0
0
0
f
0
f
f
e
e
e
f
f
f
e
f
1
0
f
f
f
f
f
f
f
0
0
0
0
0
1
0
0
f
f
e
d
d
e
f
f
e
f
f
1
2
1
1
f
e
e
d
e
f
0
0
0
1
1
2
1
0
f
f
e
e
e
0
0
e
e
0
1
0
1
0
f
0
0
e
e
e
f
0
0
0
1
1
f
0
1
0
0
0
0
0
f
e
f
0
0
1
0
0
f
0
1
f
e
e
f
0
0
0
2
1
f
0
1
0
0
1
1
0
0
f
0
0
1
1
1
0
0
1
0
f
e
e
0
f
0
1
2
2
0
0
0
0
0
1
1
0
0
0
0
f
1
1
1
1
1
0
0
0
0
0
0
f
f
2
1
2
0
0
0
0
0
1
0
0
0
f
f
0
1
1
1
0
0
f
f
f
f
1
0
0
1
3
1
0
0
f
0
0
1
1
0
0
f
e
f
1
1
2
1
0
f
f
f
f
e
0
f
0
1
1
3
1
0
e
f
e
0
0
f
0
f
e
f
1
2
2
1
0
f
e
f
e
f
1
0
1
2
1
3
2
f
f
e
f
f
f
0
f
f
e
0
2
2
3
1
f
f
e
e
d
e
0
f
1
1
2
3
2
f
e
f
0
0
0
1
0
f
f
1
2
2
2
1
e
e
e
e
e
e
f
f
0
0
1
3
1
1
f
f
0
1
2
1
f
e
f
1
1
0
1
0
e
f
f
f
e
f
f
0
f
f
1
3
2
1
0
f
0
2
2
0
0
0
0
0
1
1
1
0
f
0
0
0
0
0
0
f
f
0
1
1
2
0
f
0
0
2
2
1
1
1
0
0
1
1
2
0
0
0
2
3
2
0
f
1
f
1
1
1
0
0
0
0
1
2
1
1
1
1
1
0
1
1
2
1
1
1
1
1
2
0
e
f
e
0
1
1
0
0
0
f
0
0
f
f
0
0
1
1
2
1
1
1
0
0
0
0
1
1
f
0
e
1
1
2
0
0
0
e
e
e
e
f
f
e
0
1
1
0
0
f
f
f
1
f
f
e
e
1
1
1
1
1
1
f
f
f
e
d
d
d
e
e
0
0
0
f
0
e
f
f
f
d
d
d
f
f
2
0
1
0
1
0
f
f
d
e
d
e
e
e
f
0
f
0
0
f
f
f
f
e
e
e
e
f
1
0
1
0
0
0
f
f
f
f
f
f
f
f
f
f
0
0
f
f
f
f
f
e
e
e
0
e
0
1
1
1
1
0
0
1
0
f
0
0
0
f
f
f
0
0
0
0
0
0
f
e
f
f
f
0
0
0
0
0
2
1
2
2
2
1
0
0
1
0
0
0
0
f
0
0
e
e
f
e
0
0
0
1
0
0
0
0
2
4
3
3
3
1
0
1
0
f
0
0
f
f
0
e
e
e
f
e
1
f
0
0
0
0
0
0
0
4
4
3
3
4
2
0
1
1
1
1
f
0
0
0
f
e
e
f
0
f
0
0
0
0
0
0
1
2
2
2
2
1
3
3
1
1
2
2
2
1
2
1
0
0
0
0
f
0
0
0
0
0
0
0
0
0
0
f
f
0
1
2
1
0
2
1
1
2
2
1
1
1
1
1
1
0
0
0
0
0
0
0
0
0
0
0
0
0
0
0
0
0
1
1
0
0
0
0
0
0
0
0
0
0
0
0
0
0
0
0
0
0
0
0
f
0
0
0
0
0
0
0
1
1
1
f
f
f
0
1
0
0
0
0
0
0
0
0
0
f
0
0
0
0
0
0
1
2
1
1
1
1
1
1
1
0
0
f
f
0
0
0
0
0
0
2
2
2
1
0
0
1
1
1
1
4
3
2
2
2
2
2
1
1
0
f
e
f
0
1
0
0
0
2
2
0
1
1
2
2
2
2
3
2
2
2
3
2
2
2
1
0
f
f
e
f
0
1
f
0
0
2
2
0
f
f
0
0
0
0
0
0
1
1
2
2
1
1
1
0
0
0
f
e
1
1
e
0
1
f
0
f
f
f
f
f
0
1
0
0
0
1
1
1
1
1
1
0
0
1
0
0
1
2
0
0
2
f
0
2
f
f
f
0
f
f
0
0
1
1
1
1
1
1
1
0
0
1
0
f
0
2
0
0
1
0
1
1
f
f
f
f
f
f
f
0
0
1
1
1
1
1
1
1
0
2
1
f
1
3
1
0
0
0
1
0
f
f
f
0
f
f
e
f
f
0
0
1
1
2
1
1
1
3
2
0
4
2
1
1
0
0
2
0
0
0
0
0
e
f
e
d
e
e
f
0
1
1
1
1
0
2
1
0
2
3
2
0
0
0
0
0
f
f
0
f
e
e
e
d
e
e
f
f
1
0
0
1
0
0
0
f
0
2
1
0
0
f
f
f
e
f
f
f
f
f
e
e
e
0
0
f
0
0
0
0
0
e
e
f
f
1
0
1
0
0
0
f
e
e
f
0
0
e
f
f
f
0
f
f
0
f
f
f
e
e
e
e
f
0
0
1
0
2
0
e
e
e
f
f
f
f
e
f
0
0
0
f
f
f
e
e
f
e
e
e
f
0
1
0
1
2
1
0
f
f
e
f
f
f
f
f
1
1
0
0
e
f
e
e
f
e
d
f
e
1
1
0
1
3
2
0
0
e
d
f
f
0
0
0
1
1
0
0
f
f
e
e
f
e
e
0
0
1
1
0
2
2
2
1
0
e
e
f
f
0
0
1
1
0
0
0
f
f
f
e
e
d
d
e
0
1
1
0
1
1
2
1
1
f
f
0
f
0
0
f
0
0
1
0
0
0
0
f
e
e
e
f
1
1
1
1
2
0
0
1
1
1
1
1
0
0
f
0
1
0
2
1
1
0
0
f
f
e
f
0
1
2
2
0
1
0
1
1
1
2
2
1
1
0
1
1
1
2
2
2
1
1
0
0
0
f
0
2
0
2
0
1
1
3
2
0
0
2
2
0
0
1
1
1
2
2
2
1
2
1
2
1
0
1
2
3
1
1
1
1
1
2
1
1
2
1
1
1
0
0
1
1
1
2
2
1
2
1
1
1
0
0
2
3
1
0
0
0
0
2
2
2
2
1
1
0
0
1
1
1
1
1
1
1
1
1
1
1
0
1
4
2
1
1
0
0
0
0
3
1
0
1
1
0
1
1
0
1
0
0
1
1
2
1
0
0
1
f
0
2
1
1
0
0
0
0
0
0
0
1
2
2
2
1
0
1
0
f
0
0
1
1
2
0
f
f
f
0
f
0
0
0
0
0
0
e
e
e
0
1
0
1
f
f
e
f
0
0
0
0
0
0
f
0
1
0
0
0
0
0
0
0
0
1
1
1
0
f
f
1
f
f
f
0
f
0
0
0
0
1
0
0
0
0
0
0
0
0
0
0
0
0
0
0
0
0
0
0
0
0
f
0
0
0
0
0
0
0
0
0
0
0
0
0
0
0
0
0
0
0
f
0
f
f
f
f
f
0
f
1
2
f
e
0
f
e
f
f
f
0
0
0
0
0
0
f
0
f
f
f
0
f
0
1
0
0
1
0
1
1
0
0
0
f
d
d
e
f
f
0
0
0
0
2
2
1
f
f
f
d
e
e
e
0
e
e
f
0
0
f
1
0
f
e
c
d
0
0
0
0
f
1
2
0
f
e
e
c
d
e
f
f
0
f
0
f
f
0
1
0
1
f
e
e
e
f
f
0
0
1
2
1
3
2
0
0
0
e
e
0
0
1
1
0
f
f
0
0
1
1
1
f
d
e
f
0
2
1
1
1
1
2
1
0
0
0
1
1
1
0
0
0
0
1
1
1
0
0
0
f
d
f
e
0
0
0
0
0
0
0
1
0
1
1
0
1
2
2
0
1
2
1
2
2
1
0
0
e
d
f
e
0
0
0
0
f
f
f
0
0
1
0
1
1
1
2
1
1
1
1
1
0
e
f
0
e
d
f
0
0
2
1
0
f
f
0
2
2
1
0
0
f
0
1
2
1
1
0
f
e
e
0
e
e
e
0
1
0
1
1
f
f
f
f
1
1
0
f
e
d
f
0
1
1
1
f
f
d
e
f
c
d
1
0
2
1
1
0
0
e
e
e
e
f
e
d
b
b
e
0
1
0
0
f
f
f
d
d
e
c
f
f
2
0
0
f
0
e
d
c
d
d
c
c
b
d
f
0
0
1
f
f
f
e
e
e
0
f
1
0
2
1
0
0
e
d
c
d
c
b
c
d
d
f
0
1
1
1
1
0
f
f
1
0
1
1
1
0
f
0
0
1
f
e
d
e
d
d
e
f
0
1
1
2
1
1
2
1
2
1
1
1
2
2
1
0
0
0
0
0
f
0
0
1
0
0
0
1
1
1
1
1
1
0
1
2
0
1
1
0
1
1
e
f
f
0
f
0
e
0
1
3
2
2
2
1
2
2
2
1
0
0
0
1
1
1
0
e
f
0
e
0
0
0
1
f
0
0
1
2
2
2
2
2
2
2
1
1
f
f
0
0
1
1
f
f
0
2
0
0
e
0
1
e
0
1
1
0
1
2
1
0
1
1
1
1
0
f
f
f
0
0
e
f
1
2
0
1
1
1
f
1
0
1
0
0
0
0
0
0
0
0
1
1
0
f
f
f
0
0
e
e
f
2
2
0
1
0
f
f
f
0
f
1
f
0
f
f
0
1
0
1
0
0
0
f
0
f
f
f
0
0
0
0
1
1
e
e
0
1
2
2
0
0
0
0
0
1
0
1
2
1
f
f
f
0
0
e
e
0
0
f
0
1
0
f
f
2
3
2
1
0
0
0
f
f
0
1
1
1
0
e
0
1
0
f
f
f
2
1
0
0
0
e
e
0
2
2
1
0
0
0
0
1
0
0
0
1
0
d
d
e
e
e
f
f
1
2
0
0
0
0
f
1
1
1
0
0
0
0
1
0
0
0
f
0
0
d
d
f
e
e
e
e
0
1
0
0
0
e
2
2
0
f
f
0
f
e
0
0
e
e
f
e
e
d
c
c
d
d
e
f
0
0
0
0
0
0
f
e
e
f
2
1
0
0
0
f
0
0
0
e
e
e
e
e
e
f
0
0
0
0
0
0
0
0
0
0
0
0
0
1
3
2
3
1
2
1
1
1
0
0
0
0
f
f
0
0
0
0
0
0
0
0
0
0
0
0
0
0
0
0
0
f
f
1
1
0
0
0
0
0
0
0
0
0
0
0
0
0
0
0
0
f
f
f
f
f
0
f
f
e
e
0
0
0
e
f
f
f
d
e
e
0
0
0
0
0
0
0
f
f
f
f
f
0
0
0
1
1
0
1
1
1
0
0
f
0
0
e
f
1
0
0
0
0
0
1
f
f
0
1
1
f
0
0
0
0
1
1
0
1
0
f
f
f
e
e
e
f
0
0
0
0
f
1
f
0
2
2
1
2
0
1
0
1
1
1
f
0
0
f
0
0
f
f
e
e
f
f
f
0
0
2
0
2
1
2
1
0
f
e
f
0
f
f
f
0
0
0
0
0
1
1
1
0
0
f
f
0
1
e
0
0
0
0
f
e
0
f
f
f
f
f
f
f
f
0
0
0
0
1
1
f
1
0
1
0
f
f
e
0
f
f
f
f
f
f
0
0
0
0
e
e
e
f
0
0
1
1
0
0
0
1
1
f
f
0
e
0
f
f
0
f
0
1
1
1
2
0
f
e
f
f
0
0
0
0
0
f
f
1
0
f
f
1
f
f
f
f
0
1
1
2
2
2
1
f
e
f
f
0
0
0
1
1
0
e
f
0
1
f
1
f
f
f
1
1
1
1
1
2
2
1
f
e
e
f
0
1
1
0
1
0
f
e
d
e
1
f
f
e
f
1
2
1
1
1
0
1
1
0
e
e
f
0
0
1
2
1
0
0
e
e
e
f
1
f
0
0
0
1
1
0
0
0
0
0
f
0
f
f
0
2
2
1
1
1
1
0
f
0
1
1
2
1
f
f
0
f
0
f
e
0
f
f
f
0
0
1
1
1
2
2
1
1
1
0
0
0
1
3
2
f
f
d
1
0
0
0
f
f
f
f
0
1
1
1
1
1
1
1
1
1
1
1
f
0
2
2
1
0
0
1
3
0
0
0
f
0
f
0
1
1
2
2
2
2
1
0
1
f
f
0
0
f
0
2
1
1
0
0
1
0
0
f
f
f
1
1
1
1
1
3
2
2
1
0
f
f
f
0
0
0
0
2
1
0
f
1
0
0
f
0
f
0
0
1
1
1
1
2
1
1
f
f
f
e
0
f
f
0
0
2
1
0
0
0
0
0
0
f
f
f
f
f
f
0
1
1
1
0
f
f
f
f
f
0
0
2
2
2
1
1
0
0
0
0
f
f
0
f
0
0
f
f
1
1
1
0
f
f
f
f
f
1
2
1
1
2
1
0
0
0
0
0
f
0
0
0
f
0
0
0
0
0
0
f
f
0
0
1
1
0
2
0
f
2
0
1
1
0
1
0
0
1
1
1
0
1
0
f
0
0
0
0
0
0
2
1
1
1
1
0
0
f
0
1
0
0
0
1
2
1
1
1
1
1
0
0
0
f
f
0
0
1
2
2
3
2
0
0
0
f
0
0
0
0
d
f
0
0
0
0
0
0
0
0
0
0
0
1
1
1
2
2
2
1
f
f
f
f
0
0
0
f
d
c
d
f
f
f
0
0
0
f
0
0
f
0
0
f
f
f
0
f
f
0
1
0
0
0
0
f
f
d
d
f
f
e
e
f
f
f
f
f
f
0
f
e
d
c
c
c
e
e
0
1
0
0
0
0
0
f
f
0
e
e
c
e
d
d
c
c
d
c
d
d
d
d
e
e
0
f
0
0
0
0
0
0
0
0
f
f
f
f
e
d
e
f
e
d
f
0
0
f
0
0
0
1
0
0
0
0
0
0
0
0
0
0
0
0
0
0
0
0
0
0
0
0
0
0
0
0
0
0
0
0
0
0
0
0
0
0
0
0
0
0
0
0
0
0
0
f
f
e
e
f
f
0
0
0
0
0
0
f
0
0
0
0
0
0
0
0
0
0
0
f
f
0
0
f
f
0
e
f
f
e
f
f
d
e
f
f
0
1
1
0
0
0
0
1
1
0
f
0
e
d
d
c
d
d
d
d
e
0
f
f
f
e
e
0
0
1
0
0
0
0
0
2
0
0
2
1
0
f
e
e
e
d
f
e
f
0
0
0
0
0
0
f
0
0
1
0
f
0
0
2
0
2
3
1
2
2
1
f
f
0
1
1
0
0
f
0
0
f
f
0
0
0
1
0
e
0
0
0
1
1
2
3
2
2
2
2
1
1
0
0
f
0
0
0
1
1
1
f
0
f
0
f
f
0
1
1
2
2
1
1
1
1
2
1
1
1
0
f
f
f
0
1
1
2
1
1
0
e
e
0
f
f
2
1
1
2
1
1
1
1
1
1
2
2
1
1
0
f
0
0
1
1
0
1
1
f
f
2
1
1
3
1
1
2
2
1
1
1
2
2
2
3
3
2
1
0
0
0
0
0
0
0
1
0
2
4
2
0
1
1
f
2
2
1
1
1
2
3
3
2
3
1
1
0
0
0
0
0
1
0
f
2
1
2
2
1
1
1
0
2
2
1
1
1
2
2
2
0
f
f
f
f
f
f
0
0
f
0
0
1
1
1
1
1
2
1
f
2
1
0
0
1
0
f
e
d
c
d
0
0
0
f
f
f
f
f
f
f
1
0
1
0
3
2
f
f
0
f
f
e
e
d
c
a
c
f
0
0
0
f
e
f
f
0
f
0
1
1
2
0
0
1
e
e
e
e
d
b
b
c
c
c
e
0
0
0
0
0
0
f
0
0
0
0
0
3
1
1
f
0
f
e
c
c
b
9
a
b
e
f
0
1
0
0
f
0
0
0
0
1
0
1
f
2
1
0
f
0
f
d
a
b
a
a
c
e
0
1
2
1
0
1
0
1
1
0
1
0
1
0
0
0
1
0
f
f
e
c
a
b
c
d
f
1
2
2
2
2
1
0
f
1
1
1
0
0
0
0
1
2
2
0
0
f
f
e
d
e
f
0
2
2
2
2
2
1
0
0
0
0
f
0
f
0
f
0
0
1
2
f
0
f
f
0
e
e
0
1
2
2
2
1
2
1
1
0
0
f
f
f
f
f
f
f
0
1
1
0
0
0
0
f
e
1
1
2
1
2
1
2
1
0
1
0
f
f
e
f
f
f
f
0
0
0
f
0
1
0
0
f
f
0
0
1
1
2
1
1
1
1
1
0
0
f
1
f
0
f
0
0
0
f
0
0
f
f
e
f
1
1
1
1
1
1
0
1
1
1
1
0
0
0
0
f
f
0
0
0
0
f
0
0
0
e
d
f
0
1
1
0
1
0
0
0
2
1
1
1
0
0
1
0
0
0
f
0
0
f
0
0
0
0
d
0
0
0
f
f
0
f
0
0
1
2
1
0
0
0
2
0
0
f
f
2
0
0
0
0
0
e
0
1
0
0
0
1
0
0
0
1
0
1
1
0
0
0
f
d
e
f
d
e
0
1
0
0
0
0
0
d
f
f
1
2
0
0
0
f
0
0
0
f
f
0
1
f
e
f
0
f
0
0
0
0
0
0
0
1
1
1
2
2
1
2
0
0
3
1
1
1
1
0
2
f
f
f
0
0
0
0
0
0
0
0
0
0
0
0
0
0
0
0
0
0
0
0
0
0
0
0
0
0
0
0
0
0
0
0
0
0
0
0
0
0
0
f
f
f
f
f
f
e
f
0
f
f
e
f
f
f
f
0
f
0
0
0
0
0
0
0
f
f
0
f
f
e
e
e
d
d
e
c
c
d
e
f
e
e
f
f
e
f
0
0
0
0
0
0
f
0
f
e
d
c
c
c
c
c
b
b
c
e
f
f
f
f
0
e
f
0
1
0
0
0
0
0
0
f
e
d
e
d
c
c
d
e
f
f
f
f
f
0
0
0
1
0
0
1
2
2
1
0
0
f
f
e
0
f
e
e
e
e
0
0
0
0
0
f
0
1
1
1
0
0
1
0
1
0
1
0
f
0
1
0
0
0
f
f
f
0
1
1
1
1
0
1
2
1
1
1
1
0
0
f
0
f
1
1
0
1
2
0
f
0
0
0
1
1
1
1
1
0
0
1
1
1
1
1
1
1
1
0
1
1
0
f
2
1
1
0
0
1
0
1
1
1
1
0
0
1
1
0
0
1
1
1
1
0
0
1
1
2
0
0
3
0
1
0
1
1
1
1
1
2
1
0
0
1
1
0
0
1
1
1
1
0
0
0
1
1
0
1
1
0
1
1
2
2
1
2
2
1
1
2
1
1
1
0
0
1
1
1
1
1
0
0
f
e
1
1
1
2
1
1
2
2
2
2
3
3
3
1
0
0
0
1
1
1
0
2
1
1
0
f
e
0
1
1
1
2
2
2
2
2
2
3
2
1
1
f
d
f
0
1
1
1
1
1
1
2
1
e
e
f
1
f
1
2
1
2
2
1
2
2
1
1
0
e
d
f
0
1
1
0
0
1
1
1
0
e
f
0
f
f
0
2
1
1
1
1
2
2
1
1
e
e
e
0
0
1
1
0
1
1
0
1
1
0
1
0
0
0
f
0
1
0
f
0
0
0
0
f
e
d
e
f
0
0
1
0
0
1
0
1
f
f
f
e
0
0
0
f
f
f
f
0
0
0
f
e
e
f
f
0
0
0
1
0
f
f
e
f
e
e
e
f
0
0
f
f
e
e
f
e
e
f
f
f
e
f
0
1
1
f
0
0
f
f
e
e
d
e
f
0
f
1
f
0
d
e
e
e
d
e
e
f
f
e
0
1
f
f
0
0
f
e
f
e
d
d
0
0
0
0
1
0
d
e
e
e
e
f
f
f
f
0
0
0
f
f
f
0
0
f
e
d
d
e
1
0
1
0
0
0
d
d
e
e
d
e
e
0
0
0
0
1
f
f
f
f
f
e
d
d
d
0
1
f
0
f
f
f
d
e
0
0
f
0
0
0
0
1
0
0
0
0
0
0
0
f
f
e
e
0
1
e
0
0
f
e
d
e
f
1
0
1
1
1
1
1
0
1
1
0
0
0
1
0
0
f
0
0
0
e
f
0
0
e
d
e
f
0
1
0
0
1
0
0
0
1
0
1
1
1
0
0
1
0
0
0
0
f
0
0
0
f
e
1
1
0
0
0
0
0
0
f
f
f
0
0
0
0
1
1
1
1
1
f
0
0
0
0
0
f
1
2
1
0
f
0
0
0
0
0
0
1
0
0
1
2
1
1
3
1
f
f
0
0
0
0
0
0
0
f
0
1
1
2
3
1
1
1
2
2
2
1
1
2
3
3
3
3
2
1
0
0
0
0
0
0
0
0
0
1
1
2
1
2
2
1
3
3
1
1
2
3
4
2
2
2
1
0
0
0
0
0
0
0
0
0
0
0
0
0
0
0
0
f
f
f
0
0
0
0
0
0
0
0
0
0
0
0
0
0
0
0
0
0
f
f
f
0
f
0
0
0
1
0
f
e
f
0
f
f
f
0
f
0
0
0
0
0
0
0
0
0
f
e
e
d
f
f
e
e
0
0
e
e
e
e
f
f
1
1
f
0
0
0
0
0
0
0
f
e
f
f
f
e
e
e
f
e
f
0
0
1
1
f
f
f
0
1
1
0
0
f
0
0
0
0
f
f
f
f
e
f
0
f
0
2
2
1
1
0
0
0
0
2
1
1
1
e
0
e
0
0
0
f
0
0
1
1
0
1
0
1
f
f
f
f
0
f
f
f
0
0
0
f
0
e
e
e
f
0
0
2
3
2
3
1
0
1
0
e
e
e
f
f
e
f
0
0
f
f
0
f
f
e
d
e
f
0
0
3
4
2
2
2
2
0
0
f
0
f
0
f
f
0
1
1
0
f
f
0
f
f
f
0
f
0
2
4
3
1
2
2
1
1
1
0
1
1
0
f
f
0
0
1
0
0
0
0
0
0
0
f
0
1
4
2
2
2
2
1
0
1
1
0
0
0
0
f
e
0
1
1
1
1
0
0
0
f
e
f
f
0
3
3
3
2
2
0
1
0
0
0
1
1
0
e
d
0
2
1
1
1
1
2
f
e
f
d
f
2
3
3
2
1
0
1
0
f
0
1
2
2
f
b
b
0
2
1
1
1
0
0
f
e
d
e
0
1
2
4
1
0
0
1
1
0
0
1
2
1
e
b
c
0
2
1
0
0
0
1
0
0
d
f
0
0
2
3
1
1
1
2
1
1
0
2
1
f
b
9
c
0
2
0
f
f
1
1
1
0
f
f
f
0
1
3
1
1
3
1
2
1
1
1
0
e
b
b
e
0
1
0
1
0
0
2
1
1
0
f
0
0
0
3
2
0
2
1
2
1
1
2
0
e
c
d
e
0
2
1
1
2
1
3
2
1
f
1
0
1
f
1
0
0
2
1
2
2
1
1
0
d
d
e
0
1
2
2
1
2
3
2
1
0
e
0
0
0
0
1
f
1
1
0
1
0
0
1
e
c
c
0
1
2
3
3
1
2
3
3
0
0
0
0
1
1
1
2
f
1
0
f
0
0
0
0
e
d
e
0
2
3
3
3
1
1
2
1
f
0
f
f
f
0
2
1
1
2
1
0
1
0
0
f
e
e
e
1
2
2
2
2
1
0
0
e
d
0
f
0
0
0
0
1
1
1
0
f
0
f
f
f
0
0
0
1
1
1
1
1
1
0
f
e
d
0
e
0
0
0
1
1
1
0
f
f
e
f
f
f
0
0
0
0
1
1
0
0
f
0
f
f
e
0
f
1
1
0
0
0
1
f
0
f
e
e
f
f
0
0
0
1
1
1
1
0
0
f
f
0
f
f
0
0
0
0
0
f
e
0
f
0
f
f
f
0
0
f
0
1
1
0
1
0
f
f
f
e
d
e
0
0
0
0
0
0
0
1
0
0
0
0
0
0
0
f
f
f
0
1
1
0
f
f
e
e
d
e
0
0
0
0
0
e
f
0
f
f
f
0
1
0
0
1
0
1
0
2
1
1
f
d
f
e
d
d
1
0
0
0
0
0
0
0
e
e
f
f
0
f
f
f
0
f
0
0
0
0
0
f
0
0
f
f
0
0
0
0
0
0
0
0
0
f
f
0
1
0
0
0
2
f
0
0
2
1
1
1
2
2
2
0
0
0
0
0
0
0
0
0
0
0
0
0
0
0
0
0
1
0
0
0
0
0
0
0
0
0
0
0
0
0
0
0
0
0
0
0
0
1
1
1
0
0
1
1
0
f
1
2
1
f
1
1
0
0
0
0
0
0
0
0
0
0
1
1
f
f
f
f
e
e
e
e
e
d
d
0
0
0
f
e
e
f
0
f
f
0
0
0
0
0
1
1
0
0
e
1
1
0
0
1
f
0
1
1
1
1
1
1
0
0
0
1
1
1
0
0
0
f
1
f
e
f
e
e
f
0
f
e
d
e
0
0
0
1
0
0
0
f
f
0
0
0
f
0
0
0
1
f
0
0
0
0
f
f
e
e
f
f
f
f
f
f
e
e
e
e
e
e
f
0
f
0
0
3
1
2
3
2
1
0
e
e
e
e
e
e
e
d
e
e
d
d
f
0
f
f
f
1
f
0
0
2
2
1
2
2
2
0
0
0
f
f
e
d
d
d
e
e
d
e
0
0
1
0
f
f
f
2
3
1
1
0
1
2
1
1
1
0
0
0
0
f
f
0
f
f
0
1
1
2
2
2
1
f
1
1
4
1
1
2
1
1
2
1
1
1
2
2
2
2
1
3
2
2
1
1
2
1
2
2
2
f
1
0
2
2
2
2
1
1
1
1
2
3
3
2
4
3
4
3
3
3
3
2
2
2
2
3
3
2
e
1
3
2
2
3
1
1
1
1
1
2
3
3
3
3
2
2
2
2
2
2
2
1
1
2
3
1
0
1
3
2
1
1
0
1
2
2
2
3
3
2
1
0
f
0
0
1
1
0
f
1
0
f
1
2
0
0
2
2
0
0
1
1
1
1
2
3
2
0
f
f
e
f
e
f
f
f
f
0
f
1
f
1
0
0
1
4
0
f
2
1
0
0
1
2
0
f
f
e
f
e
e
f
f
f
0
1
3
2
f
f
1
1
f
1
f
0
2
1
0
e
0
f
f
f
e
e
f
e
0
0
0
0
1
1
2
2
f
f
0
0
f
0
f
0
1
0
0
f
e
e
e
e
e
f
0
f
0
0
1
0
1
1
2
2
e
1
0
0
0
e
f
0
2
1
f
f
e
f
0
f
f
0
0
0
1
0
0
0
1
2
1
1
0
0
1
1
0
0
f
0
2
0
0
0
f
0
1
0
0
0
0
0
1
0
f
f
1
2
0
f
f
0
0
0
2
1
f
1
0
0
0
0
0
0
0
0
0
0
0
0
f
0
f
f
f
0
0
f
e
f
f
0
1
f
f
1
1
0
f
0
1
f
0
0
0
0
0
e
0
f
f
e
e
0
0
f
d
0
1
0
f
e
d
e
f
f
f
f
0
0
0
0
f
f
f
f
0
0
f
e
e
0
f
e
f
2
0
0
f
0
e
d
e
0
f
f
0
0
f
0
0
f
1
1
2
2
0
f
f
0
e
e
e
1
1
0
0
f
e
f
0
0
0
0
0
1
0
0
f
0
0
1
1
0
0
f
f
e
e
f
f
0
0
0
0
0
1
1
1
1
f
f
0
f
f
f
0
0
1
1
2
0
1
1
0
f
f
1
f
0
0
0
0
f
1
1
0
0
0
f
0
f
0
1
1
0
1
2
1
1
2
0
1
1
0
1
0
0
0
0
0
0
0
d
d
e
e
f
0
f
0
0
1
f
1
1
1
1
3
0
f
1
1
f
0
0
0
0
0
0
0
1
1
f
0
0
0
2
0
0
2
0
0
0
2
0
0
0
1
2
2
0
0
0
0
0
0
0
0
0
0
0
0
0
0
0
0
1
1
0
0
0
0
0
0
0
0
0
0
0
0
0
0
0
0
0
0
1
1
1
1
0
2
2
2
2
1
0
2
2
2
2
2
2
2
1
1
0
0
0
0
0
0
1
1
1
0
1
1
0
f
f
0
0
0
f
f
1
0
1
3
3
3
2
2
f
0
0
0
0
0
1
2
1
1
0
f
0
0
0
0
1
1
0
0
1
2
1
0
0
1
0
2
1
f
1
0
0
1
2
2
2
f
f
f
0
0
0
0
0
0
1
1
0
1
0
f
0
f
0
f
0
0
2
1
0
0
1
f
f
f
f
1
0
f
f
0
1
1
1
0
f
f
0
0
1
0
f
d
f
1
2
0
0
f
1
0
0
f
1
0
f
f
0
1
1
2
2
1
1
1
2
1
2
0
0
e
f
0
0
0
0
1
1
0
f
f
0
0
0
0
1
1
1
1
1
2
2
1
2
1
1
0
f
f
f
f
f
1
1
1
f
0
f
f
0
1
1
1
1
1
0
1
2
1
2
1
2
1
1
0
f
f
0
f
f
1
1
2
f
1
1
0
2
2
1
1
1
1
0
1
2
1
0
0
0
1
0
0
0
1
1
1
0
1
0
0
0
1
2
1
2
2
2
2
1
1
0
1
3
1
0
f
0
1
1
1
1
3
1
f
1
0
0
f
1
2
2
2
2
2
2
1
1
1
0
2
3
1
0
0
1
0
2
2
3
4
4
1
2
1
1
0
1
2
3
3
2
1
1
1
f
f
e
1
2
1
1
1
0
1
2
2
3
5
3
1
0
1
0
1
0
2
3
2
1
1
1
0
f
e
e
0
1
1
1
0
0
1
1
1
2
2
0
0
f
e
f
0
0
0
0
0
0
0
0
0
f
f
f
1
0
0
f
0
0
0
1
1
1
1
0
f
d
f
f
1
e
e
f
0
0
0
0
f
f
0
0
0
0
f
f
0
0
0
1
1
1
0
f
0
d
e
1
1
f
d
0
0
0
0
0
0
1
0
0
0
0
f
e
f
f
f
f
e
0
0
f
f
d
f
0
1
f
e
f
f
f
0
1
1
0
0
1
0
0
f
f
0
f
f
f
e
0
0
1
e
f
f
1
0
0
d
e
e
f
0
0
1
1
1
0
0
f
f
f
0
f
0
0
f
1
0
f
f
f
e
0
2
1
f
e
e
f
0
1
1
1
0
1
f
f
f
f
f
0
1
0
f
1
0
0
f
d
e
0
1
f
e
f
0
0
1
1
1
1
0
1
1
0
0
0
f
0
0
0
f
0
0
1
0
d
0
0
f
e
e
f
0
1
2
1
0
0
1
1
1
1
0
0
0
f
0
0
0
0
0
1
f
e
0
f
0
e
f
0
0
2
2
1
1
0
0
0
1
1
1
0
0
0
0
0
0
0
0
0
f
1
0
0
0
f
0
f
0
1
0
0
f
0
f
0
1
1
1
1
1
1
0
0
0
0
1
1
f
f
0
0
0
0
1
1
2
0
0
0
0
1
0
1
0
0
1
1
0
0
0
1
0
f
1
0
e
0
0
0
0
1
0
f
1
1
0
2
1
1
1
1
0
1
1
1
1
1
2
2
2
1
0
0
0
0
0
0
0
0
1
1
1
2
3
3
4
3
4
4
4
5
2
4
3
3
3
3
4
2
1
1
0
0
0
0
0
0
0
f
0
1
1
2
1
2
2
2
2
3
2
2
2
3
2
1
2
0
0
0
0
0
0
0
0
0
0
0
0
0
0
0
0
0
0
1
1
0
f
0
0
0
0
0
0
0
0
0
0
0
0
0
0
0
0
0
0
f
0
1
1
1
1
0
1
0
f
f
0
1
1
1
0
0
0
0
0
0
0
0
0
f
f
0
2
1
1
1
1
0
1
2
3
2
1
0
f
f
1
1
0
1
0
0
f
0
0
0
0
0
0
1
0
1
1
1
1
2
1
1
1
1
0
f
e
0
0
1
2
2
1
0
0
1
0
0
0
0
0
0
0
f
0
0
0
0
1
1
1
0
0
0
f
0
1
1
2
2
2
3
2
0
f
0
0
e
f
0
0
0
0
1
1
2
2
2
0
0
f
f
0
0
0
0
0
0
1
2
1
0
1
0
0
1
d
1
2
0
1
1
1
1
1
1
f
e
e
f
f
f
0
0
f
0
0
1
2
2
0
0
0
0
e
f
1
0
1
1
2
2
1
0
e
e
e
0
1
0
0
0
1
1
1
1
2
2
0
f
0
0
f
f
1
0
0
1
2
1
1
f
d
d
f
0
0
0
f
1
1
1
0
2
3
1
0
f
0
f
f
f
f
0
1
2
1
1
2
f
d
d
f
0
0
f
e
0
1
f
f
1
3
1
0
0
0
f
e
0
f
f
1
2
3
2
1
0
c
c
f
0
0
e
f
f
f
e
f
0
2
0
0
0
f
f
e
f
0
0
1
2
3
2
2
0
e
e
0
2
1
f
f
f
f
e
f
f
f
0
0
0
f
0
f
e
0
2
2
2
2
3
2
0
e
e
0
1
1
0
f
0
0
0
1
0
f
f
f
0
f
0
e
f
1
2
2
2
1
2
1
0
f
e
0
1
1
0
0
0
0
1
1
0
f
d
f
1
0
0
f
0
2
1
1
2
1
1
0
f
e
f
f
1
2
0
0
f
0
1
1
0
0
e
f
0
0
2
0
0
0
0
1
2
1
2
1
0
f
e
0
1
1
0
0
f
0
1
1
0
0
f
e
f
0
0
f
d
f
0
1
1
1
1
0
0
f
f
0
1
1
0
0
0
0
0
0
0
0
f
f
0
f
0
f
e
f
0
0
1
1
0
0
f
e
f
1
2
1
1
1
0
0
0
0
0
0
f
f
0
f
0
0
f
0
1
0
0
0
f
f
f
f
0
1
1
1
1
0
1
0
f
f
0
e
e
f
0
f
f
1
0
0
0
f
0
0
f
f
e
f
2
1
1
0
0
0
0
0
f
f
f
e
e
f
0
f
f
1
1
f
f
e
f
0
0
f
0
0
0
1
1
2
1
1
0
0
0
0
0
1
d
0
0
f
e
0
1
1
0
f
0
1
0
0
0
0
0
2
1
1
2
1
1
1
1
0
1
1
f
0
0
0
e
f
1
1
0
f
f
f
0
f
f
0
1
1
1
1
2
2
1
1
0
1
1
1
1
0
0
0
f
0
0
0
0
e
f
f
0
f
f
0
1
1
1
1
1
2
1
1
0
0
0
1
2
0
0
0
0
0
0
1
0
0
f
f
1
1
0
1
1
1
1
1
2
1
1
0
1
1
f
f
0
0
0
0
0
1
0
f
0
f
f
f
f
0
f
0
0
1
1
2
2
f
0
1
2
2
1
1
0
0
0
0
0
0
0
0
0
f
0
0
0
f
0
f
f
1
0
0
f
f
0
0
f
f
f
0
0
0
0
0
0
0
0
0
f
f
f
f
0
0
f
0
f
0
f
f
f
f
0
f
e
f
0
0
0
0
0
0
0
0
0
0
0
0
0
0
0
0
1
1
f
0
0
0
0
0
0
0
0
0
0
0
0
0
0
0
0
0
1
1
1
2
1
1
2
1
1
1
1
1
f
f
1
2
2
1
1
1
0
0
0
0
0
0
1
0
0
1
2
3
2
1
1
1
2
3
2
2
2
2
2
1
2
1
0
0
f
0
0
0
0
0
1
1
0
f
1
2
1
2
0
f
0
0
0
1
1
f
f
0
0
0
1
0
f
f
0
0
0
f
1
f
0
f
f
0
1
1
1
1
0
0
0
0
1
1
1
1
1
0
0
1
1
1
1
0
0
0
0
f
f
0
0
0
0
1
f
f
f
e
0
0
1
0
0
1
0
0
0
1
1
1
1
0
0
0
e
e
f
0
0
0
1
f
f
f
e
e
e
e
e
f
f
f
f
e
f
0
1
2
2
0
0
f
e
e
e
0
f
0
0
f
0
f
e
e
e
f
f
0
0
0
0
0
0
0
1
2
1
0
0
e
f
0
0
0
0
1
0
0
0
f
f
f
f
f
f
0
0
0
2
2
1
1
1
1
2
2
f
f
1
0
0
0
0
1
1
0
0
0
e
f
f
0
1
1
0
1
2
2
1
2
2
2
1
f
0
f
f
f
0
1
0
1
1
0
1
0
f
f
f
0
f
0
0
0
1
1
f
0
2
2
2
f
f
e
e
0
1
2
1
1
0
1
0
0
f
e
f
f
f
f
f
0
0
f
e
f
0
2
1
1
f
0
f
1
0
2
1
2
0
1
0
0
0
f
f
f
e
e
f
f
0
f
e
e
e
f
f
0
1
0
0
1
0
1
2
1
1
1
0
0
0
f
0
0
f
f
0
0
f
e
e
d
e
e
f
f
0
f
0
2
1
2
2
1
0
0
f
f
f
0
1
0
f
f
f
f
e
e
e
d
d
e
f
0
0
f
3
1
1
0
0
0
0
f
e
e
f
1
3
1
0
f
f
f
e
d
d
e
e
0
f
f
f
f
1
2
0
e
f
e
e
e
d
d
f
2
3
2
0
0
f
f
e
e
d
f
0
0
f
0
0
f
f
1
0
f
f
d
d
c
c
f
1
2
3
2
1
f
0
0
f
f
e
f
0
e
f
0
f
f
f
1
1
f
f
c
d
d
d
0
2
2
2
1
1
1
0
0
0
e
f
f
1
f
f
1
1
f
0
f
f
e
e
d
e
e
0
1
2
2
1
2
1
1
1
0
0
f
0
1
0
0
0
1
0
f
0
f
e
d
e
e
e
f
1
2
2
2
1
2
1
2
2
1
0
1
2
1
0
0
0
1
1
0
f
0
f
f
0
f
f
0
1
1
1
1
1
2
2
2
1
1
2
2
2
1
1
1
0
0
1
1
f
f
1
1
f
e
f
0
f
0
0
1
1
1
1
2
2
2
1
1
0
0
0
1
1
f
0
0
0
f
0
0
e
d
f
f
f
f
1
1
1
1
2
1
1
2
1
1
0
0
0
0
1
0
0
0
0
f
f
e
d
d
f
0
0
0
1
0
1
1
1
0
1
2
1
0
0
f
0
f
0
0
0
0
0
0
f
e
d
c
e
e
f
f
0
0
0
0
0
1
0
0
f
f
f
0
1
f
0
0
0
0
0
0
f
f
f
e
e
c
d
e
e
d
d
e
d
f
e
e
e
d
e
0
0
0
0
0
0
0
0
0
0
0
f
e
f
f
d
e
e
f
d
f
f
e
d
e
e
f
f
f
0
0
0
0
0
0
0
0
0
0
0
0
0
0
0
0
0
0
0
0
0
0
0
0
0
0
0
0
0
0
0
0
0
0
0
0
0
0
f
0
0
f
0
f
f
f
0
1
1
0
0
0
0
0
0
0
0
0
0
0
0
0
0
0
f
f
f
f
e
e
e
f
d
d
f
0
1
0
1
1
1
0
f
0
0
f
0
0
0
0
1
1
1
0
f
0
f
e
e
f
0
0
1
1
1
1
2
2
1
f
0
f
f
f
0
0
0
1
2
2
2
0
1
1
1
f
1
1
2
1
2
3
3
3
4
3
1
0
0
e
1
1
0
0
0
0
3
1
2
0
2
1
f
0
0
1
1
0
0
1
2
2
1
1
2
1
1
0
f
1
0
f
0
1
0
f
0
1
2
1
1
1
0
f
0
0
f
0
0
0
0
0
0
0
0
1
0
0
0
0
f
1
e
f
2
3
1
0
2
1
0
f
f
f
f
f
f
f
0
0
f
f
0
0
f
1
0
0
f
e
0
0
2
1
1
1
1
1
0
0
0
0
f
f
0
0
1
1
0
f
1
0
f
1
1
1
0
e
1
1
0
0
0
1
2
1
0
f
e
f
e
f
0
0
1
1
1
1
1
1
e
0
2
0
f
f
0
1
0
f
f
1
2
1
0
f
f
e
e
f
0
1
2
2
1
f
f
0
e
0
0
0
f
e
f
0
0
e
f
0
0
0
f
f
0
0
1
1
1
2
1
1
f
e
e
e
e
0
0
1
f
f
f
f
f
e
f
f
f
0
1
2
2
2
3
1
0
1
1
0
f
e
d
d
d
e
0
0
2
f
e
f
e
e
f
f
0
1
1
2
3
2
2
1
1
1
0
f
f
e
e
e
e
e
0
0
1
0
e
d
d
d
e
f
0
0
0
1
1
2
3
2
1
0
f
e
e
e
e
e
f
e
0
f
0
1
0
f
e
c
d
d
f
f
f
0
0
2
3
1
0
f
f
e
e
f
0
f
0
1
1
0
f
1
2
0
e
d
e
d
d
e
e
e
0
1
1
0
0
0
0
0
f
f
0
0
1
1
0
0
0
2
2
0
0
e
e
f
e
e
c
c
d
0
f
f
0
1
0
1
0
1
0
1
1
e
f
0
f
1
2
1
0
1
1
f
e
e
e
d
d
e
e
f
1
1
0
1
1
1
0
1
0
e
f
0
1
f
0
2
1
2
1
0
0
0
0
e
c
e
f
0
1
2
1
1
1
1
1
1
0
f
f
0
0
1
1
2
2
2
2
0
0
0
f
f
e
f
0
1
1
1
2
1
2
1
1
1
e
d
f
1
1
1
1
1
1
1
2
1
0
f
f
0
0
0
1
1
1
1
1
1
1
1
1
0
d
f
f
0
1
1
1
1
1
0
1
1
f
0
0
1
0
1
1
1
0
0
1
2
3
2
0
0
e
0
0
0
0
0
2
3
2
0
0
1
1
1
1
1
1
2
1
1
1
1
1
1
2
1
f
0
0
0
0
0
0
0
2
4
1
f
0
1
1
1
1
1
1
1
1
1
1
0
0
0
1
1
1
1
1
0
0
0
0
0
1
0
f
f
1
1
1
1
2
0
1
1
0
0
1
0
f
0
f
0
0
1
1
0
0
0
0
0
0
0
1
f
f
f
f
f
f
f
e
d
d
f
f
f
0
e
f
1
1
0
f
0
0
0
0
0
0
0
0
0
0
f
f
f
e
f
0
e
f
1
0
f
f
e
e
0
f
0
0
0
0
0
0
0
0
0
0
0
0
0
0
0
0
0
0
1
1
0
0
0
0
0
0
0
0
0
0
0
0
0
0
0
0
0
0
0
0
0
f
0
0
f
0
f
f
0
1
0
f
f
f
f
0
0
0
0
0
0
0
0
0
1
0
0
0
f
0
f
f
0
0
0
0
f
0
f
f
e
f
0
f
0
1
1
0
0
0
0
0
0
f
f
f
f
f
f
0
0
1
3
3
2
1
1
1
0
f
f
0
1
0
1
f
0
0
0
0
f
0
f
0
0
0
1
0
1
2
2
3
3
3
3
2
0
f
f
0
f
f
f
0
0
0
0
1
0
f
e
f
0
f
f
0
0
0
0
1
1
2
2
2
1
2
1
1
f
e
0
0
f
0
0
e
0
e
e
f
f
f
f
0
0
f
f
0
1
1
2
2
1
1
1
1
0
f
0
e
f
f
2
f
f
1
0
0
f
f
f
0
0
f
f
f
0
1
2
3
1
1
1
2
0
1
0
f
0
f
f
e
1
1
0
1
0
0
0
f
0
f
0
0
1
1
1
2
2
2
1
1
2
1
0
0
0
f
f
0
2
0
0
0
0
f
0
0
f
0
f
0
f
0
0
0
1
2
2
2
3
2
0
0
f
0
f
0
1
f
f
0
0
0
f
0
0
0
0
0
f
f
f
0
f
1
2
3
3
1
e
f
0
f
f
f
0
f
e
f
0
0
0
0
0
0
1
1
f
f
e
e
0
1
1
2
1
2
1
2
0
0
f
f
f
e
e
0
f
f
1
0
f
0
1
1
0
f
e
e
0
1
1
1
1
2
1
0
0
0
0
f
0
e
f
f
f
f
0
0
0
0
0
1
0
0
f
f
0
0
1
1
0
0
1
1
1
1
f
f
0
f
0
f
f
f
f
f
0
0
1
1
0
f
f
f
f
f
1
0
f
f
f
1
1
0
0
0
f
0
1
0
f
f
0
0
1
1
1
0
0
0
f
f
f
f
0
0
f
0
0
0
1
0
0
0
0
1
1
0
1
0
1
2
1
1
0
0
0
1
0
e
e
e
f
f
f
f
0
1
0
0
f
f
0
2
1
1
1
1
2
1
1
f
f
f
f
1
0
d
e
e
f
f
0
0
f
0
1
0
0
f
0
0
1
2
1
2
1
1
0
f
e
e
0
1
f
e
e
e
e
0
1
0
0
0
0
f
0
f
0
0
1
2
2
1
2
1
0
f
e
e
0
0
0
f
e
f
f
0
1
0
f
1
f
0
1
1
1
0
2
2
2
2
1
1
0
f
f
f
0
0
f
f
f
f
f
0
0
e
e
0
f
f
1
3
2
0
0
2
2
1
0
1
1
f
f
f
0
f
f
e
f
f
f
0
0
e
f
1
0
f
0
2
2
0
1
2
2
1
1
1
1
1
1
0
0
e
f
f
f
f
f
0
0
0
0
f
0
0
0
2
2
0
f
0
0
1
1
1
2
2
2
1
1
1
1
0
0
0
0
1
1
f
f
f
0
0
0
0
0
e
e
e
f
0
0
1
2
3
3
3
2
2
1
2
1
1
1
0
f
1
f
0
0
0
0
1
f
c
d
0
f
0
0
1
1
1
0
0
1
2
1
0
1
0
f
e
e
0
0
0
0
0
0
0
f
e
e
e
0
0
f
f
0
0
f
e
d
e
e
e
f
f
f
0
0
0
0
0
0
0
0
0
0
1
0
1
0
f
f
f
0
1
f
f
f
f
f
f
f
f
0
0
0
0
0
0
0
0
0
0
0
0
0
0
0
0
0
0
0
0
0
0
0
0
0
0
0
0
0
0
0
0
0
0
0
0
0
0
0
0
0
f
f
f
f
e
e
f
e
f
f
0
0
0
0
0
0
0
0
0
0
0
0
0
0
0
f
f
f
e
f
0
0
f
e
e
c
d
d
f
f
0
1
0
0
0
1
1
1
0
0
0
0
1
f
0
0
f
f
1
0
1
1
1
0
0
0
d
e
f
f
0
1
f
f
0
0
0
0
0
1
1
0
0
f
2
2
1
1
2
3
2
0
f
0
0
0
1
0
f
0
0
f
1
1
2
0
0
0
1
1
1
2
1
1
0
1
1
1
1
1
0
0
0
0
0
f
f
f
0
0
1
3
2
0
0
1
0
2
1
1
2
0
1
1
2
2
1
1
1
0
0
0
0
0
f
0
0
1
2
3
3
1
0
2
0
2
1
1
1
2
2
2
2
2
1
1
1
0
1
1
1
0
0
1
1
0
1
2
3
1
0
1
0
1
1
1
1
2
2
2
2
1
2
2
2
1
2
1
1
1
1
0
1
2
1
3
3
1
0
2
1
0
2
1
2
3
3
2
1
2
2
2
2
1
1
1
1
1
0
0
1
2
2
4
1
1
1
1
1
2
2
1
3
2
1
1
1
1
1
2
1
0
f
0
0
1
1
0
0
0
0
2
2
1
0
2
1
1
2
1
1
0
f
f
f
1
1
1
0
f
e
f
0
0
0
e
d
e
e
0
2
0
0
2
0
0
0
0
f
f
f
f
f
0
0
f
f
e
e
f
0
f
f
f
d
d
c
e
0
f
1
1
1
f
e
f
f
f
f
f
f
f
f
f
f
e
f
0
0
0
0
f
e
e
f
e
f
f
0
1
3
e
d
c
e
f
f
0
f
e
e
f
1
f
f
0
f
f
f
0
e
0
0
0
0
0
1
1
2
d
e
c
e
e
e
f
0
e
f
0
0
f
f
f
0
0
0
1
f
0
2
0
0
1
0
1
2
f
e
c
d
e
e
f
f
f
0
1
0
f
f
0
0
2
1
1
0
1
3
0
1
2
0
1
2
1
e
d
d
e
e
f
f
f
f
f
f
f
f
0
0
1
1
1
1
1
2
0
1
2
1
1
2
2
0
f
e
e
e
e
e
e
d
e
f
0
0
0
0
0
1
2
2
0
1
0
0
1
0
2
3
2
2
1
0
f
0
f
0
f
0
0
0
1
0
1
1
1
1
1
0
1
1
1
1
1
0
0
1
2
2
2
2
1
2
1
1
1
0
1
0
1
1
0
0
1
0
1
1
1
1
1
1
1
0
f
1
1
1
1
1
1
2
2
1
2
2
1
1
0
0
1
0
1
0
1
1
2
1
1
2
0
0
f
0
0
1
1
1
1
1
1
1
1
0
0
0
0
1
1
1
0
0
0
1
2
2
1
1
0
0
0
2
3
3
2
2
1
1
1
1
1
0
0
0
0
0
1
0
1
1
0
1
2
2
1
0
0
0
0
1
3
3
1
2
2
1
0
f
0
0
1
1
1
1
1
1
1
1
0
1
1
2
f
0
0
0
0
0
1
1
0
2
2
4
3
1
2
3
2
2
2
2
2
1
2
0
0
1
1
2
0
0
0
0
0
0
0
e
e
f
0
2
1
1
2
1
1
1
2
1
1
2
3
1
0
0
1
0
0
0
0
0
0
0
0
0
1
0
1
2
1
2
0
0
3
2
0
0
2
0
0
0
0
0
2
0
0
0
0
0
0
0
0
0
0
0
0
0
0
0
0
0
0
0
0
0
0
0
0
0
0
0
0
0
0
0
0
0
0
0
0
1
0
0
0
f
f
0
f
f
f
0
f
e
e
1
1
2
2
1
1
0
0
0
0
0
0
0
1
0
1
1
0
0
f
f
f
f
1
2
2
1
2
2
3
3
4
3
1
1
0
0
0
0
0
1
2
1
0
0
0
e
e
e
d
e
f
0
0
1
0
0
1
f
0
0
1
0
e
f
0
0
0
1
0
f
e
f
f
d
c
e
e
e
f
0
0
1
1
0
1
1
0
0
f
c
d
f
0
0
0
2
f
e
e
e
d
d
a
b
d
f
0
1
1
1
0
1
0
e
f
f
e
d
d
f
0
0
0
f
e
d
f
e
e
e
b
d
e
f
f
1
2
2
0
0
e
d
e
e
d
e
e
f
f
0
0
e
e
0
f
e
0
e
e
f
0
f
1
2
2
2
1
0
d
e
d
f
e
d
e
f
0
0
0
e
d
e
f
f
0
f
d
e
f
0
2
3
3
1
1
e
e
d
d
e
e
e
f
0
f
0
0
f
d
d
e
f
1
f
e
d
e
0
2
3
4
1
e
d
d
c
e
f
f
e
e
0
1
0
0
0
d
e
e
0
0
0
e
e
f
0
2
4
4
1
e
d
d
e
e
0
f
e
f
f
1
0
1
3
e
d
f
f
1
f
0
0
f
0
2
3
2
0
e
b
d
f
1
0
e
b
c
c
0
0
f
2
f
e
0
0
0
1
1
0
f
2
2
2
2
0
e
c
d
0
1
f
e
d
c
d
f
1
f
0
f
e
0
0
0
1
1
0
1
1
1
1
1
0
e
e
f
2
3
1
f
d
d
e
1
0
0
0
0
0
0
0
0
1
2
1
0
1
0
0
0
0
f
f
f
0
1
1
0
0
0
e
0
0
0
0
1
0
f
f
1
2
2
1
1
1
1
0
0
0
f
f
f
0
1
0
1
0
0
f
f
0
2
0
1
0
f
d
0
2
2
1
2
0
0
1
0
0
f
f
f
0
0
f
f
0
f
e
f
0
1
0
1
0
0
e
f
1
2
2
0
0
1
2
0
f
e
f
f
0
0
0
f
1
0
f
e
0
2
0
0
f
f
d
e
f
2
1
0
1
2
1
f
e
e
0
f
0
0
e
f
1
0
1
2
1
f
f
f
0
f
e
f
e
0
0
1
1
1
0
0
f
e
f
f
f
0
e
0
1
1
0
2
0
f
f
f
0
e
e
e
e
f
0
1
1
0
0
1
1
0
0
0
f
0
e
0
1
1
0
1
1
0
f
f
f
e
d
e
0
0
0
1
1
0
1
1
0
f
1
0
0
1
f
0
0
0
f
0
1
1
f
f
e
e
d
e
0
0
0
f
f
0
1
1
1
2
2
1
2
2
0
0
f
0
1
0
0
0
0
f
e
f
e
d
e
f
f
f
1
0
0
0
2
3
2
1
1
0
0
d
e
f
2
0
0
0
0
0
e
e
e
d
d
e
e
f
f
e
f
f
0
1
2
1
1
0
0
1
0
1
1
0
0
0
0
0
0
0
f
d
c
d
c
d
c
e
e
d
b
c
e
e
f
f
f
0
0
1
0
0
0
0
0
0
0
0
0
f
f
e
f
f
b
a
b
f
e
d
e
d
d
e
f
f
0
0
0
0
0
0
0
0
0
0
0
0
0
0
0
f
e
d
d
f
1
e
e
f
0
0
0
0
0
0
0
0
0
0
0
0
0
0
0
0
0
0
0
0
0
0
0
0
0
0
0
0
0
0
0
0
0
0
0
0
0
0
0
0
0
0
0
0
0
0
0
1
1
0
0
0
1
0
0
0
0
0
0
0
0
0
0
0
0
0
0
0
0
0
0
0
0
f
f
f
f
f
f
f
f
1
1
f
0
1
1
0
0
1
0
0
0
0
0
0
1
1
0
1
0
f
e
0
1
f
d
e
e
0
0
e
e
0
1
e
e
0
2
0
0
0
0
0
0
0
0
1
0
f
e
0
1
0
f
1
f
f
e
d
e
e
f
0
0
2
1
f
0
0
0
f
2
0
f
f
e
f
0
1
1
1
0
e
f
f
f
f
1
0
0
1
f
1
1
1
0
f
1
1
0
f
f
f
e
f
1
f
0
1
0
0
0
0
1
2
2
0
1
1
0
0
2
f
0
0
1
0
0
1
0
e
d
e
e
e
0
f
0
1
2
2
2
2
2
1
1
0
f
f
0
f
0
1
1
f
2
0
f
e
d
e
e
f
f
0
1
2
3
2
2
2
2
2
1
0
0
1
1
1
1
2
0
0
0
e
d
d
e
f
0
0
0
1
2
2
1
2
2
2
2
1
2
1
2
2
0
0
1
2
f
0
f
d
d
d
f
0
1
0
1
1
1
1
f
e
f
0
1
1
1
1
2
2
2
f
1
1
f
e
0
d
d
e
0
f
0
1
f
0
0
e
d
d
e
e
f
0
1
2
2
4
3
1
0
1
f
1
0
e
e
f
0
1
1
0
f
f
f
e
d
d
d
c
d
e
f
1
1
2
2
0
1
0
2
f
0
0
0
0
1
1
1
0
0
1
2
f
e
e
c
c
c
c
c
d
f
2
1
0
0
0
0
e
0
0
1
0
1
1
0
0
0
1
2
1
0
e
d
d
d
d
b
d
e
f
0
0
1
0
f
d
0
2
3
1
1
1
2
1
2
1
1
0
0
f
e
e
d
c
a
b
d
f
1
0
0
1
e
d
e
0
1
1
1
1
3
2
0
1
1
1
0
f
f
d
b
a
a
c
c
f
0
f
0
1
f
e
d
d
e
f
0
0
1
0
0
1
1
1
0
0
0
e
d
a
b
c
c
f
0
0
1
0
f
e
e
d
c
c
c
d
e
f
f
f
1
0
0
1
0
0
f
c
b
d
e
f
0
2
0
0
1
d
f
0
f
d
c
b
b
c
e
0
1
1
0
1
0
1
0
e
c
e
e
f
1
1
0
0
0
f
f
1
1
0
f
d
d
e
f
0
1
1
0
1
0
2
0
e
d
0
0
0
1
0
1
f
0
f
0
2
2
2
1
0
0
1
1
1
1
1
0
1
0
1
2
f
d
0
f
0
0
0
1
0
0
0
1
0
1
1
1
1
2
2
2
1
0
1
0
0
0
1
1
e
d
f
0
0
0
0
0
0
0
0
1
1
1
0
1
1
2
2
2
1
1
1
0
f
f
0
0
f
f
f
0
f
1
0
0
0
1
1
0
f
0
0
1
1
2
1
1
2
1
0
f
0
0
0
0
f
f
f
0
f
0
0
0
0
0
0
f
1
0
0
1
2
0
0
1
0
f
f
0
1
0
1
0
1
2
0
f
f
0
0
0
0
0
1
3
1
f
0
0
1
2
2
2
1
0
1
2
1
1
2
3
2
0
f
0
0
0
0
0
0
0
0
0
0
1
1
1
2
2
1
2
3
3
2
1
1
1
1
0
0
0
0
0
0
0
0
0
0
0
0
0
0
0
0
0
0
0
0
0
0
1
1
0
0
0
0
0
0
0
0
0
0
0
0
0
0
0
0
0
0
0
0
0
0
0
f
0
f
0
1
1
0
f
f
f
0
1
0
0
0
0
0
0
0
0
1
0
0
0
0
0
0
0
0
1
0
0
0
0
0
0
f
f
f
f
f
1
1
0
0
0
0
1
1
0
e
f
f
f
1
0
0
1
1
0
0
1
0
0
f
e
f
f
0
0
1
f
0
0
f
2
0
f
f
0
f
0
1
1
2
2
2
2
2
2
1
0
0
f
d
d
e
f
0
0
f
0
0
1
1
f
e
f
f
f
f
f
0
0
1
1
1
2
2
1
1
1
1
0
e
e
0
f
e
0
1
f
f
e
e
e
e
e
e
0
0
0
0
0
1
1
1
2
1
1
0
1
0
f
0
f
f
0
1
f
f
f
e
e
e
f
f
f
0
0
0
0
2
2
1
1
1
f
0
1
0
0
0
0
0
1
0
f
1
0
e
f
0
f
f
0
0
0
0
0
1
2
2
1
1
0
0
2
3
1
0
0
1
0
e
0
1
f
f
0
0
0
0
0
0
1
1
0
0
1
1
0
1
0
1
2
3
2
2
1
0
0
0
0
1
f
f
0
0
0
0
1
1
f
f
0
0
0
0
0
0
0
1
2
3
2
0
2
f
f
0
f
0
0
0
0
0
f
f
f
f
d
f
0
0
f
f
f
0
0
0
1
1
3
3
3
0
f
f
0
f
0
0
f
0
f
0
f
e
e
0
1
0
f
f
f
0
0
0
f
f
2
0
1
f
2
f
e
0
f
f
f
f
f
0
f
f
0
1
2
1
f
f
f
0
f
f
f
f
f
0
1
0
1
f
e
0
e
f
f
f
f
f
f
0
1
2
2
1
f
f
f
f
e
f
e
e
f
0
2
1
0
f
0
0
f
0
0
0
f
0
0
1
1
2
1
1
0
f
f
e
e
e
e
e
0
0
1
2
0
0
0
1
1
1
1
f
0
1
1
1
1
1
1
0
0
0
e
d
d
e
f
0
1
1
1
1
0
f
0
1
1
1
1
0
0
1
1
0
1
1
0
0
0
f
e
f
e
f
f
f
0
1
1
2
0
0
f
1
0
1
1
0
0
0
0
0
0
0
0
0
f
f
f
f
f
f
0
0
1
1
0
1
1
0
0
f
0
0
1
0
0
0
0
f
0
1
0
0
0
0
0
0
0
0
2
2
1
1
2
0
0
f
1
0
1
1
2
2
1
0
0
0
0
0
0
0
0
0
1
1
2
2
2
2
1
1
2
0
0
1
2
2
2
1
2
2
0
1
0
f
f
f
0
0
0
1
1
1
1
1
3
3
2
1
1
0
1
0
1
2
2
3
2
2
1
1
0
0
0
0
0
0
0
1
1
1
2
1
1
2
2
0
f
0
0
0
2
1
1
1
0
0
1
1
0
1
1
2
1
1
2
1
1
1
1
1
2
2
1
0
f
0
0
0
1
f
f
e
f
e
f
0
0
0
1
1
1
1
2
1
2
1
0
1
0
0
2
1
0
0
0
0
0
f
d
d
0
0
0
f
f
f
0
0
f
1
1
1
0
1
f
e
e
0
1
0
0
0
0
0
0
0
f
e
e
0
0
e
f
0
0
f
f
e
0
1
0
1
f
e
f
f
1
0
0
0
0
0
0
0
1
0
0
0
f
0
f
0
1
0
1
0
f
f
f
f
f
f
f
f
0
0
0
0
0
0
0
0
0
0
0
0
0
0
0
0
0
f
f
f
0
0
0
0
0
0
0
0
0
0
0
0
0
0
0
0
0
0
f
f
f
f
f
f
f
f
1
e
d
e
f
e
e
f
f
f
0
0
0
0
0
0
f
f
f
0
0
f
0
1
f
0
0
0
0
0
f
0
f
f
1
1
0
f
0
1
0
0
0
0
1
f
e
1
0
1
0
0
1
1
f
f
0
0
0
e
e
f
0
1
1
0
0
0
f
0
0
0
2
f
1
3
3
3
3
1
1
1
1
2
1
f
f
f
1
2
2
2
2
1
f
0
e
e
0
0
1
0
2
1
2
3
1
1
0
0
0
f
0
0
0
0
1
2
2
2
2
3
2
0
e
f
0
1
f
0
1
0
2
2
1
1
f
f
f
f
f
f
f
0
f
1
1
1
2
2
1
0
f
0
f
f
e
f
1
2
0
0
0
0
f
f
f
f
f
f
f
0
0
1
1
1
2
1
1
0
0
1
f
d
0
0
1
1
0
0
f
f
f
f
0
0
f
e
f
0
1
1
1
1
1
f
f
0
f
0
0
e
1
1
f
0
f
f
f
f
f
f
f
f
d
e
0
1
1
1
1
1
0
e
e
e
f
f
0
0
f
0
0
f
e
f
f
f
0
f
f
e
c
e
0
1
1
1
0
f
0
f
f
d
d
f
f
e
f
f
f
f
f
0
0
0
0
f
f
e
d
f
1
0
0
1
f
f
f
e
e
d
e
e
f
f
f
f
f
0
0
f
0
0
0
0
1
1
0
0
0
1
1
0
f
f
f
0
1
f
e
e
0
0
f
f
f
0
0
0
1
0
1
0
1
2
0
0
1
1
1
0
f
f
f
0
0
0
f
f
0
0
d
0
1
1
1
0
1
1
0
1
2
1
1
1
1
2
0
0
f
f
0
e
f
1
f
0
f
1
0
1
2
1
1
1
1
1
0
1
2
2
2
1
2
1
f
0
e
f
1
0
e
0
0
1
f
2
1
1
0
1
1
2
1
2
2
2
2
2
1
1
1
1
0
0
f
0
0
1
0
0
f
0
0
1
2
1
0
0
1
2
2
1
1
2
2
1
1
0
1
0
0
0
0
1
1
0
0
f
f
f
f
1
1
2
1
1
1
1
1
1
1
1
1
1
0
0
0
0
0
0
0
0
0
0
1
f
e
2
1
e
0
3
1
1
1
1
0
0
f
e
e
0
0
0
0
0
0
0
1
2
1
1
f
f
1
1
0
f
1
3
2
0
1
1
f
f
e
d
e
e
f
0
0
0
1
0
1
1
1
0
e
e
1
0
1
0
0
2
1
1
0
0
0
f
f
e
e
f
f
0
0
1
1
1
1
2
1
0
e
e
e
0
1
1
0
0
1
0
0
f
f
f
f
f
f
0
0
0
0
0
1
1
2
2
1
0
f
e
f
f
0
0
1
0
f
f
f
0
0
0
0
0
0
0
0
1
1
0
1
1
1
1
0
f
d
f
0
0
0
0
1
0
e
d
e
f
0
1
0
1
1
1
1
0
1
1
1
0
0
1
1
0
e
1
0
0
0
0
1
e
d
d
0
0
1
0
0
0
f
0
0
1
0
0
0
f
f
f
f
0
d
f
0
0
0
0
0
0
0
e
0
0
0
0
f
f
0
f
f
f
f
f
e
d
e
f
e
0
0
0
0
0
0
0
0
0
0
f
f
0
f
0
d
0
0
e
e
0
0
f
0
0
0
e
f
f
0
0
0
0
0
0
0
0
0
0
0
0
0
0
0
0
f
f
0
0
0
0
0
0
0
0
0
0
0
0
0
0
0
0
0
0
0
0
f
f
f
0
f
f
f
f
1
1
1
f
e
e
f
f
f
0
0
0
0
0
0
0
0
0
0
f
e
e
e
e
e
d
d
d
d
d
0
f
f
f
e
e
e
e
0
1
0
0
0
0
2
1
0
1
f
f
e
d
f
f
e
d
e
f
f
f
0
0
1
0
f
f
f
0
0
0
0
1
1
3
0
e
e
f
e
f
0
1
0
f
0
1
0
0
1
0
f
f
f
0
2
1
1
f
0
0
0
1
e
f
0
f
f
0
0
2
2
1
1
0
1
1
0
f
0
0
f
f
0
0
0
0
0
f
1
f
f
0
0
0
1
1
2
2
2
1
2
1
1
2
2
1
0
0
0
0
0
0
1
f
0
0
0
0
e
f
1
f
1
1
2
1
1
2
2
1
2
1
1
0
0
0
1
2
1
2
1
0
f
0
0
0
e
f
1
0
1
1
0
1
1
2
1
1
2
1
2
1
0
1
2
2
4
5
2
1
0
1
0
0
f
0
2
1
1
2
1
1
1
0
1
1
1
2
2
0
0
1
2
3
4
4
3
0
0
0
0
1
0
1
2
1
2
1
1
1
1
0
1
1
1
1
1
1
1
0
1
2
2
5
4
0
1
e
0
1
1
0
2
1
1
0
0
1
0
0
1
2
1
2
1
0
1
f
0
0
1
3
4
0
0
e
f
2
1
1
0
1
0
f
0
0
0
0
1
1
f
0
1
1
0
f
e
f
e
0
2
f
f
f
f
2
1
0
0
1
0
0
0
0
1
1
2
1
0
1
1
1
0
f
e
d
e
f
0
f
1
0
e
1
1
f
0
0
0
0
0
0
0
1
1
0
0
1
1
f
f
e
e
f
0
f
0
f
0
1
e
0
2
0
0
0
0
0
0
0
f
f
f
0
0
1
1
f
f
0
f
0
f
f
1
f
0
1
0
1
2
0
0
0
0
f
0
f
0
f
f
f
0
1
0
0
0
f
f
0
0
e
f
0
0
1
f
2
1
1
1
0
f
0
f
0
0
f
f
1
0
0
0
0
0
f
f
0
1
d
0
f
1
0
1
1
1
2
2
0
0
0
1
0
f
f
0
1
0
0
0
1
1
0
0
f
0
d
0
e
0
1
1
1
1
2
2
0
0
0
0
f
f
f
f
f
0
0
0
1
1
0
f
f
1
0
f
e
0
1
1
0
0
1
1
f
0
f
f
f
e
f
f
f
0
0
0
0
0
0
1
1
2
2
e
0
0
f
f
f
1
1
0
f
e
f
e
e
e
f
f
0
0
0
0
0
1
1
1
1
2
0
e
0
0
0
0
0
1
f
0
0
f
e
f
f
f
f
0
f
0
1
1
1
2
1
1
3
3
1
0
0
0
0
1
3
1
1
1
0
0
f
0
0
f
f
0
0
1
1
1
1
1
2
1
4
3
1
0
0
0
0
2
3
3
2
1
2
2
1
0
1
1
1
1
1
1
1
2
1
3
2
2
3
1
e
0
0
0
0
1
1
2
3
3
3
4
3
2
2
2
3
3
3
3
3
3
3
3
4
3
3
2
0
f
0
0
0
0
1
2
1
2
4
3
4
4
4
4
4
6
5
5
6
5
4
6
5
4
1
1
0
0
0
0
0
0
0
0
0
1
2
1
2
0
2
2
2
3
2
2
1
2
1
0
1
1
1
0
0
0
0
0
0
0
0
0
0
0
0
0
0
0
0
1
1
0
0
0
0
0
0
0
0
0
0
0
0
0
0
0
0
0
0
1
1
1
1
1
1
2
1
2
2
0
f
0
1
2
2
3
2
2
1
0
0
0
0
0
0
0
0
0
1
1
1
1
0
0
0
0
f
1
1
1
1
1
2
2
3
2
1
f
0
0
0
0
0
f
0
0
1
0
0
0
e
0
1
f
f
0
0
1
1
3
2
0
0
1
1
0
0
0
0
0
1
f
0
0
f
e
f
f
0
f
0
0
f
0
0
0
1
1
0
0
e
f
e
0
0
1
0
0
0
f
0
f
e
e
1
1
1
1
3
2
2
1
0
0
0
0
0
0
f
e
e
0
1
2
1
0
0
1
0
0
f
f
1
1
2
1
2
2
2
2
2
2
1
0
0
1
0
f
e
f
1
0
0
0
0
1
f
0
f
0
f
1
1
1
1
1
2
1
2
1
0
f
0
0
f
f
e
e
f
0
0
0
f
1
0
f
f
0
0
1
1
0
0
1
0
0
0
0
f
f
0
f
0
e
d
e
f
1
1
f
f
f
0
0
0
1
0
1
1
1
1
0
0
f
f
f
f
f
f
f
f
e
e
e
f
f
e
0
e
e
f
0
0
0
0
0
1
1
0
0
e
f
f
f
f
0
f
f
f
f
f
e
e
e
e
f
e
e
f
f
f
0
0
1
1
1
0
f
0
0
0
1
1
0
0
0
0
0
0
f
e
0
f
0
e
d
0
0
0
0
0
1
1
1
f
f
0
0
1
1
1
0
0
0
0
0
1
f
e
f
f
f
f
d
e
f
f
f
0
0
1
1
0
f
0
0
2
1
1
0
0
0
0
0
f
e
e
d
f
f
0
d
e
e
e
e
f
0
0
1
1
f
0
0
0
1
0
1
0
0
f
f
e
c
e
e
f
0
1
d
e
d
d
d
e
0
1
1
1
0
0
0
0
0
0
1
1
0
0
f
d
c
e
f
f
0
1
f
e
e
c
c
e
0
0
1
2
1
0
0
f
0
0
1
0
0
f
e
e
d
e
f
f
0
1
f
e
d
d
d
d
f
0
1
2
1
0
f
f
0
1
0
1
1
0
f
e
e
e
0
f
0
f
f
e
d
e
e
e
f
0
1
2
1
f
e
f
0
1
0
1
1
1
f
d
b
d
0
e
f
f
f
f
e
f
e
f
f
0
1
0
0
e
e
f
0
0
1
1
1
1
0
e
c
d
e
e
0
0
0
f
f
0
e
f
f
f
0
f
f
e
e
0
0
0
0
1
1
0
0
e
e
f
e
f
f
f
f
f
0
1
0
f
e
f
e
f
e
f
0
0
0
0
0
0
0
f
f
f
f
f
f
0
0
0
f
0
0
0
0
f
e
e
f
f
0
1
1
1
1
1
1
0
0
f
0
0
0
f
1
0
0
0
f
1
0
0
0
f
f
e
f
0
0
1
1
1
1
1
1
0
1
1
1
1
1
1
0
0
0
0
0
0
0
0
f
0
0
0
1
1
1
1
1
1
1
0
0
1
1
1
1
2
f
f
f
0
0
0
1
0
1
1
0
0
0
1
2
1
1
0
0
1
1
1
1
2
2
2
1
0
0
0
f
0
0
0
0
0
2
1
1
1
1
2
2
3
2
2
3
1
2
3
3
1
2
1
1
1
0
0
0
0
0
0
0
0
0
0
0
0
0
0
f
1
1
f
2
1
0
f
1
0
0
f
f
0
0
0
0
0
0
0
0
0
0
0
0
0
0
0
0
0
0
1
0
0
0
0
0
0
0
0
0
0
0
0
0
0
0
0
0
0
1
0
1
1
1
1
1
1
1
1
0
0
2
2
2
1
1
1
1
1
0
0
0
0
0
0
0
1
1
0
1
1
1
1
1
0
0
0
0
f
0
f
0
0
1
2
2
2
1
0
0
0
0
0
0
1
0
f
f
f
0
1
0
0
0
1
0
0
0
0
0
0
0
1
2
2
1
1
0
0
0
0
f
f
f
e
e
f
f
0
f
f
0
0
1
0
f
f
f
f
0
0
0
0
f
0
1
2
0
0
f
f
e
e
f
f
f
f
f
0
0
0
0
0
0
0
0
0
0
0
f
e
f
0
1
1
0
f
0
e
f
f
e
0
f
f
0
0
0
0
f
0
f
f
f
0
0
1
0
f
f
f
f
f
0
f
0
e
e
f
f
f
e
f
0
1
0
0
f
0
1
1
0
0
0
1
1
0
1
1
f
0
1
0
0
f
e
e
f
f
f
f
0
1
1
1
1
1
2
2
1
1
1
1
0
1
2
0
e
f
0
f
f
0
e
e
f
f
f
0
1
1
1
1
1
0
0
1
0
1
2
1
0
0
4
0
f
f
0
0
0
0
0
1
0
0
f
1
0
1
1
0
0
1
0
0
f
0
0
1
0
0
2
f
e
e
0
1
f
0
f
0
2
1
1
1
0
0
0
0
f
f
e
f
f
f
f
1
0
0
3
0
f
f
0
f
0
1
0
0
2
2
1
1
0
0
0
0
f
e
e
e
e
f
0
0
1
1
2
0
e
e
0
0
f
1
0
1
2
2
2
1
2
1
1
0
f
f
f
f
f
f
f
0
2
2
1
1
0
1
0
f
e
f
0
2
2
2
1
2
2
2
1
0
f
e
f
0
f
0
f
0
1
2
3
1
2
1
0
f
0
f
0
2
1
2
1
2
3
3
2
0
f
e
f
0
0
f
0
0
0
1
3
4
0
1
f
0
f
0
0
1
1
1
2
2
2
2
1
f
f
0
0
1
f
f
0
1
1
1
0
4
1
1
0
f
f
f
0
2
1
1
2
3
3
2
f
e
0
0
1
f
e
f
0
1
1
1
1
2
0
1
f
f
f
f
1
1
2
2
1
2
1
0
f
e
f
0
0
f
e
f
0
1
1
1
1
1
f
1
0
0
0
0
1
1
1
1
1
1
1
0
f
e
f
0
f
e
e
0
1
1
2
1
0
0
0
0
0
1
1
0
1
1
1
0
1
1
1
0
f
f
f
0
f
e
0
0
0
1
2
0
f
f
1
0
0
0
0
1
1
1
0
1
1
1
0
0
0
0
0
f
f
0
0
0
0
1
1
1
f
1
1
0
0
0
0
0
f
0
1
1
0
1
1
1
1
0
f
0
f
0
0
0
0
0
1
0
1
1
1
0
0
0
f
f
e
e
0
0
1
1
0
1
1
1
0
1
0
0
f
f
0
0
0
0
0
1
f
0
0
0
0
e
d
e
e
f
0
0
0
1
1
1
1
0
1
0
1
0
f
f
e
0
2
1
0
0
0
0
f
f
f
e
e
e
d
d
e
f
e
f
f
0
0
0
0
1
f
0
0
1
1
1
0
0
0
0
0
0
1
0
f
e
e
e
e
0
1
f
f
0
1
0
0
1
0
f
f
0
f
0
0
0
0
0
0
0
0
0
1
0
0
0
f
0
0
f
f
e
f
f
f
0
f
e
e
f
0
0
0
0
0
0
0
0
0
0
0
0
0
0
0
0
0
0
f
f
0
0
0
0
0
0
0
0
0
0
0
0
0
0
0
0
0
1
f
0
0
1
1
0
0
0
0
e
f
e
1
2
2
1
0
0
0
0
0
0
0
0
0
f
0
1
0
0
1
0
0
1
1
1
2
1
0
0
1
1
3
3
3
2
0
f
0
0
0
0
f
f
f
0
f
f
f
0
1
f
f
f
f
e
e
d
e
0
1
2
2
3
1
0
0
0
0
0
f
f
0
f
e
f
f
1
f
e
f
f
f
d
e
f
f
0
2
2
3
4
2
1
f
1
0
0
f
e
f
e
d
f
0
1
0
f
f
e
e
e
e
e
f
0
1
2
1
3
3
0
1
2
0
f
1
e
0
1
f
0
0
0
f
0
f
f
f
f
f
0
0
1
1
1
1
2
2
1
1
1
0
e
1
0
f
0
f
f
0
1
1
0
f
f
0
0
0
2
1
2
2
2
2
2
2
1
1
1
f
f
2
0
0
1
0
0
1
2
1
1
0
f
0
0
0
1
2
1
2
2
1
1
2
3
1
0
0
0
0
f
0
0
f
0
0
1
0
0
f
f
0
0
0
0
0
0
0
1
f
0
1
2
1
f
0
1
f
e
0
f
e
f
1
1
1
0
0
f
f
0
0
f
e
f
e
e
e
e
0
1
f
0
0
f
0
f
f
f
0
1
1
2
2
1
1
f
e
f
0
e
e
e
e
e
e
d
e
f
f
0
0
f
0
f
f
e
f
0
1
1
2
1
1
f
e
0
0
e
e
e
e
0
f
f
f
e
f
f
f
0
0
f
0
f
0
0
0
2
2
1
1
f
f
1
1
0
f
f
f
f
0
f
e
e
e
f
0
0
f
0
0
0
0
0
1
1
1
1
0
0
0
1
0
1
0
0
0
f
0
f
f
f
d
f
1
1
1
1
0
0
0
0
0
1
1
0
f
0
0
0
1
1
1
0
0
f
0
0
f
e
d
f
1
f
e
0
f
f
0
0
1
0
f
f
0
f
0
1
1
1
1
0
0
f
0
f
f
e
d
f
0
f
f
f
0
0
0
0
0
0
0
f
f
0
1
2
1
1
1
0
f
f
f
f
f
f
e
f
0
f
0
f
f
f
0
0
f
0
f
f
1
2
2
1
1
0
1
0
f
e
e
e
f
e
0
f
0
f
f
f
f
f
0
0
0
f
f
f
0
1
1
0
f
0
0
0
e
e
e
e
f
e
e
0
0
f
0
f
d
d
e
f
f
f
f
0
1
1
0
0
f
0
0
f
e
e
e
e
f
0
f
1
0
f
f
f
f
e
d
e
0
0
0
0
1
1
0
0
f
1
0
0
f
f
f
e
0
1
e
f
0
0
f
e
0
e
d
e
f
0
1
1
1
1
0
0
0
0
0
1
0
f
f
f
0
1
0
0
0
0
f
f
f
f
e
e
f
0
0
0
0
0
1
1
1
0
1
1
0
0
f
f
f
0
1
0
0
0
0
f
e
f
d
d
d
f
0
0
0
0
1
1
1
0
0
1
0
f
0
0
f
f
0
0
0
0
0
1
0
f
e
e
e
f
0
1
0
1
1
1
0
1
1
f
0
1
1
1
0
0
0
0
0
0
0
0
0
0
0
0
0
1
f
f
1
1
1
0
0
f
f
f
0
0
0
0
f
1
0
0
0
0
0
0
0
0
0
0
f
f
f
0
f
0
f
f
f
0
0
f
0
f
0
0
0
0
0
0
0
0
0
0
0
0
0
0
0
0
0
0
0
0
0
0
0
0
0
0
0
0
0
0
0
0
0
0
0
0
0
0
0
0
0
0
0
0
0
0
0
0
0
f
e
e
1
0
0
0
0
0
0
0
0
0
0
0
f
0
0
1
0
0
f
e
e
e
e
0
e
f
f
1
2
4
1
1
1
0
f
f
0
0
0
0
f
0
0
1
f
f
d
d
d
e
e
e
f
f
d
f
0
f
f
0
1
0
f
0
0
0
0
0
f
e
f
0
f
d
d
d
d
f
f
0
0
0
f
0
f
f
0
1
1
2
3
2
2
1
0
0
e
e
0
0
f
f
e
f
e
0
1
1
1
0
f
1
f
f
0
0
0
0
1
2
2
2
0
f
0
f
0
f
e
e
e
c
e
0
0
0
0
0
0
0
0
1
1
0
1
1
2
3
2
0
0
d
0
f
f
e
d
d
c
d
f
0
0
0
0
0
0
0
f
0
1
0
1
2
2
3
2
0
f
e
f
f
f
e
e
c
d
e
f
0
1
2
1
0
0
f
0
0
0
1
1
0
4
5
2
1
f
e
f
e
e
e
d
c
c
e
0
1
1
1
0
f
e
e
f
0
0
0
1
0
3
4
2
f
0
0
f
f
f
e
c
b
c
f
0
1
2
2
1
0
f
e
f
f
0
1
2
2
3
3
1
e
0
0
0
e
e
e
d
c
d
f
0
1
2
3
2
1
0
f
0
f
0
0
1
3
3
3
2
f
0
0
0
f
f
d
d
d
e
0
0
1
2
3
2
2
1
1
f
f
1
0
1
1
1
f
0
e
0
f
f
f
e
d
d
d
f
0
0
2
3
3
2
3
1
0
f
f
0
f
f
f
e
e
e
f
1
0
0
f
e
e
d
d
f
0
1
1
2
3
2
2
2
0
e
f
0
f
e
d
d
f
e
0
1
1
f
1
0
0
f
e
f
0
0
1
1
1
3
2
1
0
f
f
f
e
e
f
e
f
d
f
0
0
0
1
1
2
0
e
e
e
f
0
1
1
1
1
1
1
f
e
f
e
e
f
f
e
e
f
0
0
0
1
1
1
0
f
e
0
0
0
0
0
0
1
1
0
f
e
e
e
e
f
f
f
f
f
0
0
f
e
0
0
1
0
f
0
f
0
0
0
0
0
1
0
f
e
e
d
d
f
f
0
1
f
1
f
e
e
f
0
1
0
f
f
f
0
0
f
0
1
0
0
f
e
e
c
d
e
0
1
0
f
0
0
f
e
f
0
f
0
0
f
0
0
0
0
0
0
0
0
e
f
c
c
e
f
0
0
0
0
0
e
f
e
f
0
0
0
0
1
1
1
0
f
f
f
f
f
e
d
c
c
e
1
1
1
f
0
1
f
f
f
f
f
0
1
1
0
1
2
1
1
0
f
e
e
d
e
c
c
e
f
1
0
f
0
0
0
e
e
f
0
f
0
1
0
0
0
1
0
0
f
f
d
d
d
d
f
f
0
0
f
f
0
0
0
f
d
e
0
0
1
0
0
0
f
0
0
0
0
f
e
f
f
0
1
1
1
0
f
f
0
0
0
0
f
f
0
f
f
f
f
0
0
f
f
f
f
1
1
1
1
1
3
3
2
0
0
0
0
0
0
0
1
3
3
2
1
0
0
0
1
1
1
2
1
2
3
2
1
1
0
0
0
0
0
0
0
0
0
0
0
f
f
0
0
f
0
f
1
2
f
2
2
1
1
1
f
0
f
0
0
0
0
0
0
0
0
0
0
0
0
0
0
0
0
0
0
0
1
1
0
0
0
0
0
0
0
0
0
0
0
0
0
0
0
0
0
0
0
0
0
1
0
0
1
1
0
0
0
1
1
f
f
0
0
0
0
0
0
0
0
0
0
0
1
1
f
f
f
e
e
f
0
0
0
f
e
f
d
f
0
f
f
f
0
0
1
0
0
0
0
0
0
e
0
f
f
0
0
0
1
2
2
3
2
2
3
1
0
1
f
d
e
0
1
0
0
0
1
1
1
0
1
1
0
0
1
1
1
1
1
1
2
1
1
2
1
0
0
1
0
d
e
e
0
0
0
0
1
1
1
1
0
1
1
1
0
0
1
1
1
1
1
1
1
0
0
2
0
e
d
f
f
0
1
f
2
2
2
1
1
0
0
0
0
0
1
0
0
0
1
2
1
1
1
2
1
1
e
f
e
0
2
f
1
3
2
1
1
f
f
0
0
f
0
0
f
1
1
2
1
1
1
1
2
0
f
0
f
2
3
1
2
0
f
f
e
f
f
f
e
f
e
0
0
2
2
1
1
1
1
2
1
0
0
0
f
0
1
1
1
0
e
e
e
e
d
e
d
e
f
0
1
2
2
1
1
1
1
2
1
1
1
e
f
0
1
2
2
e
d
d
e
e
d
d
e
0
1
0
0
1
2
1
0
1
1
1
0
0
1
0
f
1
1
2
1
e
c
e
e
e
f
0
1
2
2
0
f
f
0
0
0
0
1
1
0
f
f
0
0
0
2
1
0
e
e
0
0
0
1
3
3
3
1
0
e
d
f
0
0
f
0
0
f
f
f
0
0
0
2
2
0
f
0
2
2
2
2
3
2
1
0
f
d
e
e
f
f
f
0
0
f
0
f
f
0
0
2
3
1
0
2
3
3
1
2
1
0
f
f
f
e
e
f
0
f
0
0
0
1
2
0
0
0
0
2
3
1
2
3
2
2
0
0
f
f
f
e
e
f
f
0
0
0
0
1
0
1
2
0
1
0
0
2
2
2
3
2
1
0
e
d
d
e
e
e
e
f
0
2
1
0
1
0
0
0
1
f
0
1
0
1
2
2
3
1
0
f
e
d
e
e
d
d
e
0
1
2
1
0
0
0
1
1
0
f
1
1
1
2
2
2
1
1
0
f
f
f
f
e
d
e
f
0
1
1
0
0
0
0
1
f
0
0
1
1
0
3
2
2
1
1
0
0
1
0
0
1
2
2
1
1
0
0
0
f
0
1
0
f
f
f
1
1
0
2
1
2
1
0
1
1
1
1
2
2
3
2
1
0
0
0
f
0
f
0
f
f
e
e
0
0
0
0
1
2
0
0
0
0
1
1
2
2
2
1
1
0
0
0
0
0
f
f
0
0
e
f
2
1
0
1
1
2
f
f
0
0
1
2
1
2
1
1
0
1
1
1
1
0
f
f
1
0
e
0
2
0
0
0
3
2
2
1
1
2
0
2
2
2
1
1
1
0
0
1
1
f
f
f
0
e
0
0
1
0
0
0
1
2
3
2
1
1
0
0
0
0
1
1
1
0
0
2
1
f
e
f
f
e
0
1
0
0
0
0
1
1
2
1
0
0
0
f
f
f
f
f
f
d
e
d
e
f
e
e
e
f
0
0
0
0
0
0
0
f
d
e
e
e
f
f
f
f
1
0
d
e
0
0
f
0
f
f
1
1
0
0
0
0
0
0
0
0
0
0
f
0
1
0
f
f
0
1
f
f
0
1
0
1
1
0
0
1
0
0
0
0
0
0
0
0
0
0
0
0
0
0
0
0
0
0
1
1
0
0
0
0
0
0
0
0
0
0
0
0
0
0
0
0
0
0
0
0
0
f
0
0
0
0
0
2
2
1
f
f
f
f
0
1
0
0
0
0
0
0
0
1
1
f
f
f
e
e
f
e
f
e
e
f
0
1
1
f
f
e
f
0
0
0
0
0
0
0
1
2
0
1
0
0
1
f
0
0
2
1
0
1
0
1
2
1
2
0
0
0
0
1
0
0
0
1
2
3
1
0
f
0
0
0
0
1
1
f
0
0
0
0
1
0
f
f
e
f
1
1
2
f
0
0
2
1
0
1
1
1
0
0
f
0
0
0
0
f
0
0
0
0
0
0
f
e
f
1
1
0
0
1
1
1
0
0
1
1
0
0
0
0
0
1
1
2
1
1
1
1
1
0
f
0
0
2
1
0
0
2
0
1
1
0
0
0
0
0
0
0
1
1
1
1
1
0
1
1
0
0
0
0
0
1
0
0
f
2
0
1
1
0
1
1
0
0
0
1
1
1
1
2
1
1
1
1
0
0
1
1
1
1
1
1
1
2
0
1
1
1
1
1
1
0
0
1
2
1
2
1
1
0
0
1
0
1
2
2
1
3
2
0
1
2
0
2
1
0
0
0
0
0
1
1
0
2
3
1
0
f
0
0
1
0
1
2
2
2
3
0
1
0
1
1
1
0
f
0
0
0
0
0
1
2
3
2
0
f
0
0
0
f
0
2
3
3
3
1
1
0
0
0
0
0
e
f
f
f
f
0
0
2
3
2
0
0
0
0
0
f
f
0
0
1
2
2
0
1
0
0
f
e
e
f
f
f
e
e
0
1
2
2
1
0
0
0
0
f
e
e
e
0
1
0
f
1
0
f
e
e
f
e
d
e
e
f
0
1
2
1
1
1
0
0
0
f
e
e
d
e
0
0
f
1
0
e
0
f
0
e
f
f
f
0
0
2
2
1
0
0
0
0
0
0
f
f
d
d
f
f
1
2
1
0
1
1
0
0
f
f
0
0
1
1
1
0
f
0
0
0
f
f
f
f
f
d
f
0
0
2
f
1
0
1
1
1
1
1
0
1
1
1
0
f
0
f
f
0
f
0
0
f
0
d
f
0
0
1
1
1
f
1
2
1
1
1
1
1
1
1
0
0
f
f
e
f
0
f
0
0
f
f
0
e
f
1
0
f
f
0
1
0
1
1
1
0
0
0
f
f
0
0
0
0
0
0
0
1
1
0
f
e
0
f
e
f
f
1
1
1
1
1
1
f
f
0
0
f
f
0
f
0
0
0
1
1
0
1
e
0
0
0
f
e
f
f
1
1
0
f
f
f
0
0
0
0
f
0
0
0
0
0
f
1
f
0
e
f
f
1
0
f
0
f
0
1
f
f
e
f
f
f
0
0
0
0
0
0
0
f
0
2
1
0
0
0
0
0
3
2
3
1
f
0
0
f
f
f
f
0
0
0
1
0
0
0
0
f
1
2
1
0
f
0
0
0
2
4
3
1
0
0
0
0
0
0
1
1
1
1
1
0
0
0
0
0
f
0
0
e
0
0
0
0
1
0
f
0
1
3
3
3
3
3
3
2
2
2
2
2
1
1
0
f
f
0
3
f
0
0
0
0
0
0
0
f
f
2
3
3
3
3
2
3
5
4
4
4
3
2
1
0
0
1
1
0
0
0
0
0
0
0
0
0
1
2
2
2
3
3
3
3
4
2
3
3
1
0
f
f
1
1
0
0
0
0
0
0
0
0
0
0
0
0
0
0
0
0
0
0
0
0
0
0
0
0
0
0
0
0
0
0
0
0
0
0
0
0
0
0
0
0
0
0
0
f
0
0
1
1
0
0
f
0
0
0
1
0
0
0
0
0
0
0
0
0
0
1
1
0
0
0
0
0
0
1
2
2
0
f
0
1
0
f
0
0
1
1
0
0
0
0
1
0
0
e
e
e
d
f
f
d
e
f
f
f
0
0
f
f
e
f
1
1
f
f
0
0
0
0
2
0
0
f
e
f
0
0
0
0
0
f
0
0
1
1
0
1
2
1
0
0
0
f
0
0
0
0
1
f
f
f
f
f
f
0
0
0
0
f
f
0
0
0
0
2
2
2
1
1
1
1
0
f
0
f
f
e
e
f
e
f
f
f
f
f
0
f
0
0
0
0
1
1
2
2
1
1
0
1
0
2
0
e
f
d
e
f
e
0
f
f
f
f
0
0
0
f
0
f
1
1
1
2
2
2
0
0
0
1
f
f
0
0
f
0
0
0
0
f
f
1
0
1
1
0
f
f
0
1
0
f
0
2
1
0
1
1
0
f
0
1
f
f
0
f
f
0
0
1
1
1
1
0
f
f
f
0
f
f
0
1
1
1
2
0
f
0
f
f
0
0
0
0
0
0
1
2
2
2
2
1
e
e
f
f
f
0
0
1
1
0
0
1
0
0
f
f
0
2
1
1
0
1
1
1
2
3
2
1
f
e
f
f
0
0
1
1
1
1
1
0
0
0
f
f
1
2
2
1
0
0
0
0
0
2
1
1
f
f
f
f
1
1
1
0
0
0
0
0
1
0
e
f
f
0
f
0
f
0
e
f
f
0
1
2
1
f
f
f
0
0
0
e
e
0
2
2
0
f
1
1
e
f
f
e
e
e
d
e
0
2
2
2
0
f
e
e
e
d
e
d
e
0
3
1
0
0
1
0
f
f
e
d
d
e
e
0
2
2
2
0
f
e
e
d
d
c
d
c
d
0
1
2
0
0
0
0
e
e
d
c
d
0
1
2
2
1
1
f
e
e
e
d
c
c
c
e
e
0
1
1
0
0
0
0
f
d
d
d
e
1
3
4
2
1
0
f
e
d
e
d
e
d
e
e
f
f
1
2
0
0
0
f
f
d
e
e
f
2
4
3
2
0
e
e
d
e
f
f
f
f
0
0
f
0
0
2
1
0
0
d
e
d
e
f
0
2
3
2
1
0
e
f
f
f
f
0
1
0
1
1
0
3
3
1
0
f
e
d
e
e
0
0
1
0
2
2
1
f
f
0
0
1
1
2
2
1
1
0
1
2
2
0
1
0
e
0
f
0
0
1
0
1
1
1
0
0
1
0
0
2
2
3
2
2
2
2
1
2
1
f
1
1
e
f
1
2
1
1
1
1
1
0
1
0
1
1
1
1
1
2
2
2
1
1
2
2
1
0
0
0
0
e
f
0
0
f
0
1
0
0
1
1
0
0
1
0
0
2
2
0
1
2
1
2
1
0
0
0
0
e
c
e
e
f
f
1
1
1
1
0
0
f
f
e
0
1
0
0
f
0
1
1
0
0
0
0
0
f
d
c
e
e
e
f
0
0
f
f
f
e
d
e
e
c
d
e
f
f
0
0
0
0
0
0
0
f
f
f
e
e
f
f
d
e
e
d
d
c
c
e
e
d
d
e
f
0
0
0
0
0
0
0
0
0
0
0
0
f
f
f
e
0
f
e
f
0
0
f
f
f
f
f
0
0
0
0
0
0
0
0
0
0
0
0
0
0
0
0
0
0
0
0
0
0
0
0
0
0
0
0
0
0
0
0
0
0
0
0
0
0
0
0
f
f
f
0
f
0
f
f
0
0
0
0
0
0
0
f
0
0
0
0
0
0
0
0
0
0
f
f
f
f
e
e
e
f
e
e
e
e
f
0
0
0
0
f
f
0
0
0
0
0
0
0
1
0
f
f
f
e
e
e
e
f
0
e
0
0
0
f
0
0
0
0
f
f
e
0
f
0
0
0
1
2
1
2
1
0
f
e
0
1
0
e
f
f
2
0
1
1
1
1
0
f
f
f
0
0
0
0
1
0
f
1
1
1
f
0
0
1
0
f
f
0
1
1
1
1
0
1
0
0
f
0
f
0
0
0
1
f
0
1
2
1
2
2
1
0
f
f
e
f
0
1
0
0
0
0
0
0
0
f
0
f
0
0
0
0
1
1
0
1
2
1
1
0
0
e
d
f
0
0
0
0
0
f
0
0
0
0
1
f
0
e
1
0
0
0
1
1
1
2
0
0
0
e
e
f
0
1
1
0
0
f
0
f
0
2
1
0
f
e
1
0
0
0
1
2
1
1
0
0
0
e
e
0
0
1
1
0
0
1
2
1
0
0
0
e
0
0
0
1
0
f
0
0
0
1
0
0
0
e
e
0
1
0
0
1
1
0
1
2
f
f
e
0
f
f
f
1
1
0
1
0
0
1
0
0
0
e
f
0
1
0
0
0
1
0
0
0
f
0
1
0
0
f
0
f
0
0
0
2
0
1
1
1
1
0
0
1
1
1
1
1
2
1
1
1
0
0
0
e
1
f
e
0
f
0
0
1
2
2
2
2
2
1
1
1
2
1
1
1
2
2
1
1
0
f
f
0
f
0
e
0
0
0
f
0
2
3
2
2
3
2
2
2
2
2
1
0
1
1
1
1
1
f
e
0
f
1
1
1
e
d
e
e
0
1
1
2
3
3
3
2
1
0
f
f
f
1
3
2
0
0
f
0
0
1
0
0
d
c
c
c
d
e
f
f
1
2
2
2
0
0
f
e
e
0
1
1
1
0
d
f
0
1
0
f
d
c
c
c
a
b
c
d
e
f
0
0
0
e
f
e
e
1
1
1
2
f
0
0
f
1
0
f
e
d
d
b
b
b
c
d
d
e
e
f
f
f
e
f
f
1
0
0
f
e
1
1
1
f
0
1
0
f
e
d
d
e
e
e
c
d
d
f
0
f
0
0
0
0
f
0
f
0
f
1
0
2
0
0
2
0
0
0
0
0
0
1
f
e
f
0
0
1
1
0
f
0
1
f
0
f
0
1
1
2
1
0
2
2
3
3
2
2
2
1
1
0
0
0
0
1
0
0
0
0
f
e
f
f
0
f
1
1
0
1
3
2
3
3
2
1
2
1
1
1
1
0
0
1
0
1
1
0
e
f
f
f
1
0
0
0
1
2
2
2
1
1
1
1
1
0
0
1
0
0
f
f
0
0
f
f
e
f
f
0
2
0
0
0
1
1
2
0
0
0
0
1
1
0
e
f
f
f
f
f
e
e
e
f
f
f
e
0
0
0
0
0
1
f
0
1
0
1
1
1
f
e
0
f
e
e
e
e
f
d
e
f
0
1
f
0
0
0
0
0
0
f
0
0
0
f
e
f
f
e
f
e
e
f
f
e
e
d
c
e
e
f
0
0
0
0
0
0
0
0
f
0
f
f
f
f
d
0
0
f
e
0
1
0
0
f
e
0
0
0
0
0
0
0
0
0
0
0
0
0
0
0
0
0
0
0
0
1
f
f
0
0
0
0
0
0
0
0
0
0
0
0
0
0
0
0
1
1
2
1
1
1
2
1
3
2
0
0
0
2
2
2
2
2
2
1
0
0
0
0
0
0
1
1
1
2
2
3
1
1
0
1
2
1
1
1
0
1
2
3
3
4
3
2
0
0
0
0
0
0
e
0
0
1
1
1
1
0
0
1
0
0
1
0
0
0
0
0
0
1
1
1
1
0
f
0
0
0
f
0
1
1
0
0
f
f
f
e
f
f
f
f
f
f
f
f
0
f
0
f
e
e
f
0
0
0
0
f
0
0
0
0
0
0
0
0
0
0
f
f
e
e
f
f
f
f
f
f
e
e
f
f
0
0
1
0
1
0
f
0
0
0
0
1
1
1
1
0
0
f
f
f
e
f
e
d
d
d
e
f
0
1
1
0
f
e
f
0
f
0
0
1
1
1
1
1
0
0
f
e
f
e
d
d
d
d
f
e
1
2
0
0
0
f
f
f
0
0
f
f
f
0
1
1
f
f
f
d
e
f
d
c
d
e
e
f
0
1
f
0
0
f
f
0
0
0
f
0
0
0
1
0
f
e
e
f
f
f
e
d
d
d
e
1
0
1
0
f
0
0
f
0
0
f
f
0
1
2
1
f
f
f
0
f
f
0
0
e
c
c
d
0
0
2
1
0
f
f
f
0
1
0
1
1
3
3
1
0
0
0
1
1
1
2
1
0
c
b
c
0
0
1
1
0
0
f
0
1
1
1
1
2
1
0
0
1
1
2
2
0
1
2
2
1
e
c
d
0
f
1
1
0
1
f
f
1
1
1
2
0
f
f
0
1
1
1
1
1
1
2
2
1
f
d
d
f
0
0
0
0
f
f
f
0
1
2
1
1
0
f
f
0
0
1
1
2
1
2
0
0
e
d
d
f
0
0
e
e
f
e
f
0
1
1
2
1
0
0
f
f
0
1
1
1
2
2
1
f
e
f
e
e
1
f
f
e
f
e
f
0
1
1
1
2
0
f
f
f
f
0
1
1
1
0
0
e
d
f
d
f
0
0
f
e
e
e
e
0
0
0
2
2
1
f
0
0
0
1
1
1
0
0
0
f
f
f
e
f
1
0
0
f
e
e
d
f
f
0
1
2
1
0
1
0
1
0
1
0
0
0
f
f
e
f
f
f
0
1
1
f
0
f
e
f
f
f
f
1
1
f
0
0
0
0
0
0
f
f
e
e
e
f
e
0
0
1
1
e
f
0
e
f
e
e
e
f
f
0
1
1
1
0
0
f
f
e
e
e
0
0
f
0
0
1
0
f
e
f
e
f
f
f
e
e
0
0
1
0
0
0
0
f
f
f
f
e
0
0
0
1
f
0
f
0
f
f
f
e
e
f
0
f
0
0
1
0
1
0
f
f
f
f
f
f
f
0
0
0
0
0
f
0
f
f
f
f
f
f
0
f
0
0
0
0
0
0
0
f
f
0
0
f
0
f
0
0
0
0
1
f
0
0
f
0
f
f
0
f
0
f
f
f
f
0
f
0
0
f
0
1
f
0
0
0
0
0
0
0
1
1
0
f
0
0
0
f
e
f
f
f
0
f
1
1
1
1
1
1
0
0
0
0
0
0
0
0
1
2
2
2
2
2
3
1
1
1
2
0
2
1
1
2
2
2
1
0
1
0
0
0
0
0
0
0
0
f
1
0
0
0
1
1
1
f
1
1
0
0
1
2
0
f
f
f
0
0
0
0
0
0
0
0
0
0
0
0
0
0
0
0
1
0
f
f
0
0
0
0
0
0
0
0
0
0
0
0
0
0
0
0
0
1
1
1
1
1
1
1
2
2
f
1
2
2
1
2
2
1
0
0
0
0
0
0
0
0
0
1
2
1
1
2
1
1
2
1
1
0
0
0
1
1
2
2
2
2
2
2
0
0
0
0
0
0
f
0
1
1
1
0
1
2
2
2
2
2
2
1
1
1
1
1
2
2
1
2
2
0
1
0
0
1
e
f
1
0
f
0
f
0
0
f
f
e
f
0
0
0
0
1
1
1
1
1
0
0
0
1
0
0
f
f
0
f
f
f
f
f
0
e
e
f
f
e
f
0
0
1
1
0
1
0
0
0
1
2
0
1
1
0
0
1
0
0
f
e
f
f
f
0
f
f
f
f
f
0
0
0
1
1
2
0
1
f
0
0
2
1
1
1
f
0
f
f
f
0
f
0
0
f
f
0
0
f
0
0
0
1
1
0
0
0
2
f
1
1
0
0
f
f
f
0
0
0
0
0
0
1
1
1
0
f
1
1
0
0
1
1
0
0
0
f
f
0
0
0
f
f
0
0
0
0
0
0
0
0
1
0
f
f
0
0
0
0
2
1
f
f
0
0
1
1
0
0
0
0
0
0
0
0
0
1
1
1
1
0
0
e
0
f
0
0
2
1
1
e
0
0
0
0
0
f
0
0
0
0
0
0
0
1
1
1
0
0
0
f
e
f
f
0
0
1
0
0
0
0
f
f
f
f
0
0
0
0
1
1
1
1
1
0
f
0
0
f
f
0
0
0
1
0
0
f
1
1
f
1
0
0
0
0
1
1
1
1
1
0
f
e
e
f
0
f
f
0
0
1
0
0
e
0
1
0
f
0
0
1
1
0
1
1
1
1
0
f
f
f
f
0
0
0
0
0
1
1
1
0
f
f
1
0
0
f
0
1
0
0
f
0
1
0
1
f
e
e
e
0
1
0
1
1
0
1
3
2
e
f
f
f
0
0
0
1
f
0
f
0
0
1
0
f
f
f
f
0
1
1
0
1
1
1
2
2
f
0
0
0
f
1
0
0
0
0
f
f
1
1
0
e
e
f
0
1
1
0
0
0
1
1
0
0
e
2
f
0
0
1
0
0
0
0
0
0
1
0
0
f
0
1
2
1
0
f
f
f
0
0
0
1
e
e
0
2
2
1
1
0
0
0
1
1
1
2
3
1
2
2
1
1
0
f
f
0
0
0
f
f
f
f
0
1
1
1
0
1
0
1
2
3
3
3
3
3
2
2
1
1
0
f
e
f
1
f
d
f
f
0
0
e
0
2
0
0
0
1
1
2
2
3
3
2
2
1
1
0
0
e
f
f
0
e
d
0
2
0
f
0
1
1
0
1
1
0
1
1
1
1
1
1
1
1
0
0
0
f
e
e
f
e
d
0
2
0
0
0
1
2
1
2
1
1
1
1
1
1
0
0
0
0
f
f
f
e
e
f
f
f
f
0
0
0
0
0
f
2
0
0
0
0
1
1
0
0
1
0
0
f
f
f
f
f
e
e
f
f
0
0
0
0
0
0
0
1
f
e
e
e
e
f
e
e
e
e
d
e
f
f
f
0
f
f
f
0
1
0
0
0
0
0
0
0
f
f
d
d
c
c
d
e
f
f
e
f
0
f
f
0
f
0
0
1
0
0
0
0
0
0
0
0
0
0
f
0
0
0
0
1
0
0
e
e
f
0
0
0
0
f
f
f
0
0
0
0
0
0
0
0
0
0
0
0
0
0
0
0
1
0
f
0
0
0
0
0
0
0
0
0
0
0
0
0
0
0
0
0
0
0
0
0
1
1
1
0
0
0
0
0
e
f
2
2
1
1
0
0
0
0
0
0
0
0
0
f
0
3
2
2
2
2
1
1
1
1
2
2
1
0
0
1
1
1
1
1
1
0
0
0
0
0
1
f
0
1
1
2
1
0
0
f
1
0
0
0
f
f
1
1
1
1
1
0
0
f
f
0
0
0
2
1
2
2
1
1
1
0
f
f
0
0
f
e
e
e
e
0
0
1
1
0
f
e
f
0
0
0
1
0
1
3
2
2
1
1
0
f
f
f
f
f
e
e
e
f
f
f
f
0
f
f
e
0
0
0
1
2
2
1
1
0
1
1
0
0
0
0
0
f
0
0
0
0
0
0
f
e
f
e
f
0
0
2
1
2
1
f
1
1
0
1
1
0
1
0
0
f
f
1
0
1
1
1
0
f
f
f
1
0
f
2
1
1
0
0
0
1
1
0
0
0
0
f
f
f
e
0
1
0
0
1
1
0
f
0
0
0
0
3
0
0
2
1
1
2
2
0
0
0
0
f
f
f
f
0
1
0
1
1
2
0
f
e
f
1
1
2
1
0
1
1
1
1
1
1
f
0
f
f
f
f
0
0
0
1
1
2
1
f
f
f
d
0
1
1
2
0
1
1
1
1
1
1
1
f
f
f
1
1
0
1
1
1
2
1
2
0
e
d
d
1
1
2
2
1
1
1
1
1
2
f
0
f
e
f
1
2
2
2
2
1
1
1
1
2
0
e
e
1
f
1
2
1
2
2
1
1
0
f
f
e
e
f
2
2
2
1
1
1
2
1
1
1
0
e
e
f
f
1
2
1
1
1
1
0
0
0
f
f
f
0
1
2
2
1
1
2
2
1
1
1
e
e
d
f
0
1
0
1
0
0
1
0
0
f
f
0
0
1
2
2
1
1
1
1
2
2
2
0
e
e
f
0
1
1
0
f
f
0
1
1
0
f
f
f
0
0
1
0
0
0
0
1
1
1
1
f
e
d
f
f
0
1
0
e
f
f
f
0
f
f
f
f
f
0
1
1
0
0
0
0
0
0
f
e
e
f
f
f
1
1
1
f
f
f
f
f
f
e
f
f
f
0
0
1
1
0
0
0
f
0
e
c
d
f
0
1
0
1
0
f
0
f
f
f
f
e
f
f
f
0
1
0
1
0
f
0
f
f
d
c
e
0
0
0
0
0
f
e
f
f
f
0
f
f
f
f
f
0
0
0
1
0
f
e
e
d
d
d
f
0
f
0
1
0
f
e
f
f
0
0
1
0
f
0
0
f
0
0
0
f
0
f
f
e
e
d
0
0
e
f
1
1
f
e
0
0
0
0
0
0
0
f
f
e
f
0
0
f
f
f
f
e
e
f
f
0
e
f
0
0
f
e
0
0
0
1
0
0
f
0
f
f
f
f
f
e
e
e
e
f
f
f
f
f
0
0
0
0
0
1
2
2
1
1
0
0
1
0
f
f
f
f
f
f
e
e
f
f
0
0
0
f
0
0
0
0
0
0
3
2
0
0
1
1
1
1
0
0
1
0
0
f
f
f
f
0
0
0
f
1
0
0
0
0
0
0
0
0
0
1
2
3
2
1
0
1
2
2
2
2
1
1
1
1
0
f
1
0
0
0
0
0
0
0
0
0
0
f
1
1
2
1
1
2
1
2
2
2
2
2
2
1
2
1
0
0
0
0
0
0
0
0
0
0
0
0
0
0
0
0
0
0
0
0
0
0
0
0
0
0
0
0
0
0
0
0
0
0
0
0
0
0
1
2
1
1
0
1
0
2
2
0
1
0
0
1
0
0
0
0
0
0
0
0
0
0
1
0
1
1
1
2
1
f
0
0
1
2
2
2
1
1
2
2
1
0
0
1
0
0
0
0
0
0
1
f
0
0
0
1
1
1
1
1
2
1
1
0
e
e
0
1
1
f
e
f
1
1
0
0
0
1
0
2
0
e
f
f
e
0
1
1
0
f
f
1
0
0
1
0
0
1
1
1
2
2
1
0
0
0
0
f
e
1
0
f
0
0
0
0
0
0
0
f
0
1
1
0
1
0
1
1
1
1
0
0
0
0
1
f
0
1
1
0
1
1
0
0
1
0
1
1
1
1
1
0
1
1
1
0
1
2
2
1
1
1
3
0
f
0
0
0
0
1
1
2
2
1
1
1
1
1
1
1
1
0
0
0
1
3
3
2
0
2
2
0
f
0
f
0
0
1
1
2
3
2
1
1
0
0
0
f
0
0
0
f
1
1
3
0
1
3
2
0
1
f
0
1
1
1
2
3
3
2
0
e
d
d
e
d
e
e
e
f
0
1
2
0
0
0
2
2
1
f
0
1
1
1
2
2
2
0
d
c
d
d
d
c
d
c
c
c
d
0
2
1
1
2
1
1
0
0
1
0
0
1
1
0
0
e
d
d
f
0
f
e
e
c
c
c
c
f
2
1
2
1
1
f
0
0
1
0
0
1
1
0
f
e
f
f
f
0
0
f
f
e
e
f
c
d
0
0
0
1
1
0
0
0
0
1
0
0
0
f
0
0
0
f
f
0
f
0
0
f
f
0
0
e
f
0
0
0
3
0
0
f
0
1
1
0
1
f
f
f
0
0
0
0
f
f
f
0
1
3
3
f
f
f
0
1
1
f
f
f
f
0
1
1
1
0
0
0
0
0
0
f
0
f
0
1
1
3
4
0
0
f
0
0
2
0
d
e
e
f
0
1
1
1
1
1
0
0
f
0
0
0
f
1
1
2
4
1
f
e
0
1
0
1
e
e
e
f
e
f
0
0
0
f
f
0
e
0
0
0
0
1
0
1
1
0
f
e
0
f
1
2
f
e
c
d
d
d
e
d
c
c
c
e
0
1
1
1
2
2
1
1
0
0
f
f
0
0
2
2
0
f
e
c
e
d
c
d
b
a
d
f
1
1
0
1
1
2
0
1
2
0
e
f
0
0
1
3
1
0
f
d
f
e
d
e
d
d
f
0
1
1
1
2
1
1
2
2
1
1
f
0
0
1
0
1
3
0
0
0
f
e
f
f
0
0
0
1
1
0
1
1
2
2
2
1
1
1
1
0
0
0
f
1
2
1
1
f
1
0
0
0
0
1
1
1
1
1
1
2
1
0
1
2
1
1
1
0
0
0
1
1
2
2
2
1
1
1
1
2
1
1
1
1
1
1
1
1
1
0
0
1
1
1
1
0
0
0
1
2
2
1
3
2
2
2
2
2
2
2
1
1
1
2
1
0
0
0
1
0
0
f
0
0
0
0
1
1
1
1
3
3
4
3
2
2
3
3
1
2
2
2
1
3
1
1
2
2
3
0
0
0
0
0
0
0
1
f
f
f
1
0
1
3
2
2
2
3
3
1
1
3
2
1
1
0
0
0
0
0
0
0
0
0
0
0
1
1
1
2
2
2
2
2
1
f
f
1
1
0
0
0
0
0
0
0
0
0
0
0
0
0
0
0
0
0
0
0
0
0
0
0
0
0
0
0
0
0
0
0
0
0
0
0
0
0
0
0
0
0
0
0
1
0
0
0
0
0
1
1
0
0
2
1
0
0
0
0
0
0
0
0
0
0
0
0
0
1
f
0
0
0
1
1
1
2
2
0
1
1
0
0
0
f
0
0
0
1
0
0
0
0
0
0
0
0
1
f
f
0
1
1
1
1
2
3
2
1
1
0
0
f
0
f
0
e
0
f
0
0
0
0
0
f
f
0
1
1
2
2
2
2
1
1
0
1
0
f
0
f
f
f
f
e
e
f
f
0
0
0
1
2
1
0
0
0
2
1
2
1
1
1
1
1
1
0
0
0
f
f
0
f
f
1
0
0
0
1
f
1
0
0
0
1
1
2
2
2
2
2
2
2
1
1
0
f
f
0
0
f
0
f
0
0
0
2
0
1
0
0
0
1
1
1
2
2
2
3
2
2
2
2
1
1
0
0
f
f
e
e
1
1
0
1
0
f
0
f
f
1
1
1
2
2
2
2
3
2
2
2
2
1
0
f
0
0
d
f
1
1
0
0
0
0
0
0
f
0
0
1
0
0
0
0
0
0
0
1
1
1
1
f
0
1
e
1
1
1
1
0
1
0
f
0
0
f
0
f
f
e
d
d
d
d
0
0
1
0
0
0
0
0
f
0
0
1
0
1
f
0
f
f
f
f
f
e
e
d
c
b
b
d
f
0
1
1
0
0
0
f
0
f
0
f
f
0
f
f
f
e
e
e
f
e
e
e
e
c
c
e
0
0
0
0
0
0
f
f
0
e
f
0
f
1
2
f
e
d
e
f
f
f
f
f
f
0
f
e
f
f
f
f
0
1
0
f
0
e
f
0
f
0
2
f
d
d
f
1
0
0
0
1
0
0
0
f
f
f
f
f
f
0
f
f
0
f
0
0
0
f
1
f
e
e
0
0
0
0
0
0
f
0
0
0
f
f
f
e
f
1
f
f
1
f
0
1
0
1
0
0
e
f
0
0
0
0
0
f
0
0
0
0
f
f
e
f
f
1
f
0
0
0
0
1
0
0
0
f
f
0
f
f
0
0
0
0
0
f
f
f
0
f
f
f
f
f
f
0
f
1
1
1
0
1
0
1
0
0
f
0
0
0
0
0
0
f
f
f
0
0
f
f
0
0
0
0
0
1
2
1
f
f
0
1
0
f
f
0
0
0
0
0
1
0
0
1
0
1
0
f
0
f
0
f
f
1
2
1
0
1
1
3
1
0
1
1
1
0
0
1
1
1
1
2
1
1
0
0
0
0
f
0
0
0
1
f
f
1
3
2
0
0
0
0
0
0
1
1
2
2
2
1
2
1
1
1
0
0
1
1
1
0
2
0
f
0
2
1
0
0
0
0
0
0
0
1
1
1
1
1
2
1
1
1
0
1
2
1
0
0
f
0
0
0
1
0
1
0
1
1
0
0
1
1
1
0
1
1
1
1
1
1
2
1
2
3
0
0
e
0
0
0
f
1
2
1
1
0
1
1
0
0
0
1
1
1
1
1
2
1
0
1
1
0
3
0
0
0
0
0
f
1
1
f
0
2
2
3
1
1
1
0
0
1
1
2
1
0
0
0
0
0
1
0
0
0
0
0
0
0
f
d
f
0
2
1
1
0
f
1
1
1
1
0
1
1
0
f
f
0
0
0
0
0
0
0
0
0
0
0
0
1
1
0
1
1
0
1
1
1
2
1
0
f
1
0
f
0
0
0
0
0
0
0
0
0
0
0
0
0
0
0
0
0
0
0
0
0
0
0
0
0
0
0
0
0
0
0
0
0
0
0
0
0
0
0
1
1
0
0
0
0
0
f
f
1
1
1
0
0
0
0
1
0
0
0
0
0
0
0
0
f
0
f
0
0
1
1
3
2
1
0
0
f
f
f
f
f
f
0
0
0
0
0
0
0
0
0
0
f
f
1
1
2
1
1
0
1
1
0
0
0
f
f
f
e
e
f
f
f
0
0
0
0
0
0
0
1
0
1
1
0
0
f
f
0
0
f
f
e
e
e
e
e
d
f
e
e
0
0
0
0
0
0
0
2
1
1
1
1
2
1
0
e
e
f
e
e
e
f
f
e
e
e
e
e
f
f
0
f
0
1
0
3
2
1
1
1
2
2
1
0
0
f
0
0
1
0
1
0
0
0
f
c
c
e
f
f
1
1
2
3
1
1
2
2
1
1
1
0
2
1
0
0
0
1
0
0
1
1
f
d
d
e
0
f
0
2
2
1
1
1
1
2
1
1
2
2
2
2
2
1
0
0
0
0
1
0
1
0
d
d
f
0
1
2
1
0
2
2
2
2
1
2
2
1
3
2
2
1
1
1
0
0
0
0
2
0
e
f
e
0
0
1
1
0
1
2
2
1
1
0
1
1
0
2
2
1
1
0
0
0
0
0
1
f
f
f
0
1
1
1
0
0
0
1
0
0
f
f
f
0
f
f
0
0
0
0
1
0
0
f
f
f
e
1
0
0
1
1
0
f
0
f
e
e
f
e
e
e
d
d
e
0
0
0
1
f
e
e
f
d
e
1
f
0
e
1
1
0
e
d
d
d
e
e
e
f
d
e
0
0
0
0
1
0
e
f
e
e
1
0
0
0
0
1
2
f
e
d
d
e
e
0
0
0
0
f
0
1
1
0
1
1
0
0
f
0
1
1
0
0
0
0
2
f
e
d
e
f
0
0
0
0
f
0
0
1
0
1
1
2
1
1
1
1
1
0
1
2
0
1
1
e
e
e
0
1
1
1
0
f
f
f
f
0
0
0
2
2
1
1
1
0
1
0
2
1
0
1
0
f
f
e
f
1
1
0
f
f
f
f
0
0
0
0
1
2
1
1
1
1
1
3
2
0
0
0
1
1
0
0
f
f
f
f
f
e
f
f
0
1
0
1
1
1
0
1
1
0
1
2
2
2
0
2
0
0
1
0
f
e
f
f
f
f
f
0
0
0
0
0
0
0
1
1
0
f
0
1
2
0
0
1
0
1
0
0
f
f
0
f
0
0
f
0
0
0
f
f
f
f
0
0
f
f
0
1
1
0
0
1
1
0
f
f
f
e
f
f
0
0
1
1
0
0
0
f
f
f
e
e
f
0
0
1
2
0
0
0
1
0
0
0
0
0
0
0
0
0
0
0
0
0
0
0
f
f
e
e
0
0
0
0
f
0
0
0
f
f
0
1
2
2
f
0
0
0
0
0
0
0
f
f
f
e
d
e
f
0
0
f
f
0
0
0
0
1
3
3
3
2
1
1
0
0
f
0
0
0
f
0
f
f
e
e
f
0
1
1
1
0
0
0
e
1
2
1
1
2
2
2
0
1
2
0
1
1
0
0
0
f
f
f
f
0
1
f
1
0
0
0
0
0
e
e
f
0
1
2
2
1
0
1
2
1
1
0
1
2
1
0
f
0
f
0
0
0
0
0
0
0
1
1
f
0
1
1
1
1
1
3
2
0
0
2
0
0
0
f
f
0
0
0
0
0
0
0
0
0
0
0
0
0
0
0
0
0
0
0
1
1
0
0
0
0
0
0
0
0
0
0
0
0
0
0
0
0
0
0
1
1
0
0
0
0
0
f
f
0
1
1
0
f
f
f
0
0
0
0
0
0
0
0
0
0
0
f
0
0
0
1
1
1
1
0
2
1
1
1
1
0
0
0
f
f
2
1
0
0
0
0
1
1
0
0
1
1
1
1
2
2
2
2
2
1
2
2
1
0
0
f
f
d
f
0
1
0
0
0
1
0
f
1
2
1
1
1
1
2
1
1
1
1
0
0
1
1
0
e
e
d
f
0
f
f
0
0
1
2
1
0
0
0
0
1
1
0
1
0
0
0
1
0
f
f
0
f
0
f
e
f
f
f
0
1
f
1
0
1
1
1
0
1
1
1
1
1
1
1
1
0
0
0
0
0
1
0
f
e
e
f
0
2
0
0
1
1
0
1
1
1
2
2
1
1
1
1
0
0
0
0
0
0
1
0
0
f
0
f
0
1
0
0
1
0
0
0
0
1
2
1
1
0
1
1
1
1
0
0
0
0
2
2
f
0
1
0
0
0
0
1
0
0
f
f
f
f
f
f
f
e
f
0
1
1
0
f
0
0
2
2
f
0
0
0
0
0
0
1
0
0
f
f
e
d
e
d
b
b
d
f
0
1
0
f
0
0
1
0
f
f
1
1
1
0
f
0
f
e
d
c
b
a
a
c
b
c
e
0
0
0
f
0
0
1
1
1
0
0
0
0
0
0
f
f
e
d
b
a
a
b
c
e
f
f
0
f
0
f
f
0
1
0
0
0
0
0
0
0
f
0
0
e
c
c
b
c
d
f
0
1
2
2
1
0
0
f
f
0
0
0
0
f
0
1
1
1
0
0
0
e
e
e
f
0
1
1
2
2
2
2
1
0
0
0
0
0
0
1
f
f
0
0
1
1
0
0
0
f
f
0
1
2
2
3
2
2
0
1
1
0
0
0
0
0
f
0
f
0
2
1
2
1
0
1
2
1
0
1
1
2
2
2
1
1
0
0
0
0
0
0
f
0
0
0
0
1
1
1
1
1
0
0
1
1
1
1
1
0
1
0
0
0
0
0
0
0
0
0
f
f
f
f
0
f
0
1
2
1
0
0
0
2
1
1
0
1
1
f
0
f
0
0
0
1
1
0
0
0
0
f
0
0
0
1
2
1
f
f
0
0
1
1
0
0
0
0
0
1
1
2
0
0
0
0
0
0
0
0
f
0
f
0
1
1
0
0
0
2
1
1
0
0
0
0
0
1
1
0
0
0
0
0
0
0
0
0
f
0
f
0
0
f
f
2
2
2
0
0
0
f
e
f
0
0
1
0
0
0
0
0
0
1
0
0
0
1
1
1
1
0
f
1
2
1
0
1
0
f
f
f
0
0
0
0
1
0
0
0
0
1
0
0
f
0
1
0
0
0
0
0
1
1
1
1
0
1
f
0
0
1
1
1
0
0
0
f
0
0
0
0
0
1
0
0
0
0
0
0
f
1
2
1
1
1
1
1
0
1
1
0
1
0
0
1
0
f
f
0
0
f
2
0
0
0
0
0
f
1
1
0
2
2
2
2
1
1
1
0
1
1
2
1
0
e
f
f
f
f
f
0
0
0
0
0
0
0
f
e
f
1
1
1
1
1
0
0
1
2
1
0
f
0
f
0
0
0
0
0
0
0
0
0
0
0
0
0
0
1
1
0
1
0
0
1
1
1
1
1
1
0
0
0
0
0
0
0
0
0
0
0
0
0
0
0
0
0
0
0
0
0
1
1
0
f
0
0
0
0
0
0
0
0
0
0
0
0
0
0
0
0
1
0
1
1
1
1
1
0
1
0
f
f
e
f
1
2
2
2
2
1
0
0
0
0
0
0
0
f
0
1
2
3
3
3
3
3
3
0
2
2
1
2
2
2
2
3
3
2
0
f
0
0
0
0
f
f
1
2
3
3
3
3
2
2
2
1
1
1
0
0
2
2
2
3
2
3
2
0
1
0
0
1
e
f
1
3
3
3
3
1
2
1
1
0
0
f
1
1
1
1
1
1
1
2
4
3
1
1
0
0
0
1
2
1
1
1
0
1
1
0
1
0
1
0
1
1
f
0
1
0
0
2
4
4
3
2
0
1
0
0
1
0
0
1
1
2
0
0
0
f
0
1
0
f
e
e
f
e
f
1
4
6
4
2
0
0
f
f
2
2
0
1
1
1
0
f
0
0
1
0
f
f
e
e
e
f
f
f
2
5
4
2
f
e
0
0
2
1
0
1
0
0
0
0
0
1
0
f
e
f
f
f
f
f
0
0
1
4
2
1
f
e
1
0
1
0
0
0
0
f
f
f
0
f
f
e
e
f
e
f
0
0
0
0
0
3
2
f
f
f
f
0
0
f
0
0
0
f
0
f
f
0
f
f
e
f
f
0
0
f
f
0
2
2
2
e
f
f
f
f
f
f
f
f
f
0
0
0
1
1
2
0
0
f
0
0
f
f
0
0
2
3
2
0
f
f
e
e
e
f
f
0
0
0
1
2
3
3
2
2
0
0
f
f
f
f
f
0
1
1
0
e
1
f
f
f
e
0
0
0
0
1
1
2
3
3
2
2
1
1
0
0
0
f
0
1
1
0
f
f
0
0
e
0
f
0
0
f
0
1
1
2
2
2
2
2
2
1
0
0
f
f
0
0
0
0
e
f
0
1
2
1
0
f
0
f
0
1
1
1
2
3
3
2
2
1
1
0
f
f
0
1
0
1
f
0
f
1
2
2
f
f
0
0
f
1
0
2
2
3
2
1
1
0
1
1
0
1
1
1
1
2
f
f
0
2
2
3
0
0
1
1
0
0
0
0
1
1
1
0
1
0
1
1
1
2
1
2
0
e
e
e
f
1
1
3
0
1
2
1
0
0
0
0
1
1
1
1
1
1
1
0
1
1
0
1
1
f
e
f
f
e
f
2
0
2
1
0
f
0
1
0
f
1
1
2
1
1
0
0
1
1
0
1
f
f
f
f
0
f
f
0
0
0
0
1
0
1
0
0
f
0
1
1
1
1
1
0
1
1
0
1
e
f
0
0
0
0
0
f
f
f
f
0
0
0
0
0
0
1
1
1
0
1
0
1
1
0
1
0
e
f
0
f
0
1
0
0
0
e
f
f
f
f
0
0
0
1
0
0
1
1
0
1
1
0
0
0
f
1
1
f
0
0
2
3
2
0
e
f
0
0
0
0
0
1
1
0
1
0
0
1
1
0
0
0
f
1
1
0
0
0
1
2
1
0
0
0
1
1
1
1
1
2
2
1
2
0
1
1
0
0
0
f
f
0
f
0
0
0
1
0
f
f
1
1
0
1
2
1
1
1
1
2
1
1
0
0
0
e
f
1
1
f
0
0
0
0
0
f
1
f
e
f
f
f
f
0
0
f
f
0
0
0
0
e
e
e
e
f
f
0
0
0
0
0
0
0
f
0
0
f
e
f
e
0
0
f
f
0
1
f
f
f
f
e
f
0
0
0
0
0
0
0
0
0
0
0
0
0
0
0
0
0
f
0
1
1
0
0
0
0
0
0
0
0
0
0
0
0
0
0
0
0
0
0
0
f
0
0
f
0
f
0
0
0
3
2
f
0
f
e
f
f
0
0
0
0
0
0
0
0
0
1
f
0
1
3
2
2
1
f
1
0
0
1
1
0
1
1
0
0
1
1
0
0
0
0
f
e
f
1
1
1
0
1
1
2
1
0
0
0
0
0
f
0
1
1
0
0
0
0
0
0
0
0
e
e
e
f
0
f
0
1
1
1
0
f
f
f
f
0
0
f
0
0
f
0
0
0
0
1
0
0
f
f
0
f
0
0
1
1
0
0
0
f
f
f
0
0
0
f
0
0
f
0
0
1
1
1
0
f
f
0
f
f
0
1
0
1
f
f
f
0
1
0
1
0
0
0
f
0
0
f
f
0
1
1
0
f
1
0
e
f
0
0
0
0
f
0
f
1
1
1
0
0
0
0
f
0
f
e
0
1
1
1
2
2
1
e
e
f
0
f
0
0
0
0
f
0
0
0
0
f
f
f
0
f
f
f
f
0
f
f
1
2
0
f
e
f
f
f
f
f
0
0
1
0
0
0
0
f
f
f
0
d
d
e
e
d
f
0
1
0
0
f
d
0
0
f
0
f
f
0
0
0
f
e
f
f
0
0
f
e
d
c
d
d
f
f
1
1
e
e
d
0
0
0
0
f
0
0
0
f
e
e
f
0
f
0
f
e
d
d
d
e
d
f
0
1
0
e
d
f
e
0
0
f
0
1
1
0
f
0
0
0
1
1
f
e
e
d
e
0
f
1
f
1
2
e
e
e
f
f
0
0
2
2
1
1
0
0
1
1
1
1
f
e
e
f
2
2
2
1
f
f
f
0
0
f
0
1
0
1
2
3
2
1
0
1
2
1
2
1
f
e
0
1
2
2
3
1
0
0
e
0
1
0
0
0
0
1
2
2
1
0
0
2
2
3
2
0
f
f
0
1
3
3
2
1
0
0
f
0
0
0
0
0
0
1
2
2
1
f
0
3
3
4
2
0
0
1
1
1
0
2
3
2
0
f
0
f
1
1
0
f
0
1
1
1
0
0
1
3
2
2
1
f
0
1
0
0
0
3
2
2
0
f
f
f
1
0
0
0
0
f
0
0
0
0
2
3
2
0
0
1
f
0
0
0
0
2
2
0
f
1
0
0
0
0
e
e
f
f
0
0
0
1
1
1
0
f
0
f
f
0
0
0
0
0
1
f
0
1
0
0
1
0
e
e
f
f
0
1
1
0
0
f
f
e
f
f
f
f
0
0
0
0
1
0
f
1
0
0
1
0
f
f
0
0
0
0
0
0
e
d
e
e
e
f
f
0
0
f
f
f
1
0
f
f
f
f
f
f
0
0
0
0
0
0
0
f
e
e
e
d
d
e
e
0
f
f
0
f
f
0
0
0
e
0
f
f
f
0
0
0
f
f
f
e
f
e
d
e
f
f
f
1
0
0
1
0
e
0
0
0
f
e
f
0
f
0
f
f
f
f
f
f
f
f
f
0
0
0
1
2
0
0
1
2
0
0
0
0
0
1
1
0
f
0
0
f
0
1
0
0
1
1
1
0
1
f
1
0
0
f
f
1
1
0
0
0
0
1
0
f
1
2
3
3
2
1
2
2
2
1
0
0
0
2
2
1
1
2
1
0
0
0
0
0
0
0
0
0
0
1
1
1
2
0
1
2
2
0
f
1
0
1
0
0
f
0
0
0
0
0
0
0
0
0
0
0
0
0
0
0
0
0
0
0
0
0
0
0
0
0
0
0
0
0
0
0
0
0
0
0
0
0
0
0
1
1
1
1
1
0
1
2
2
3
4
4
1
3
1
1
0
0
0
0
0
0
0
0
0
1
0
1
1
0
f
e
e
e
1
2
2
3
4
4
4
3
1
f
1
1
0
0
0
0
0
0
2
2
2
f
f
f
f
0
0
f
0
1
1
1
1
2
1
2
2
3
0
1
2
0
1
0
0
0
1
2
0
1
0
0
0
0
0
0
0
0
1
2
0
0
1
0
0
1
0
1
3
2
1
0
0
0
0
f
e
1
0
f
0
0
0
0
1
1
1
1
1
1
1
0
1
0
0
2
1
2
2
1
0
f
0
e
e
0
f
e
f
f
0
1
1
1
1
1
1
1
2
1
1
0
0
2
2
6
3
0
0
0
f
f
c
e
e
f
f
0
1
1
1
1
2
1
0
1
1
0
2
0
0
1
1
4
3
0
0
0
f
f
d
d
e
f
f
0
f
0
1
1
1
0
e
e
d
e
e
e
f
f
f
2
1
0
1
1
f
f
e
d
f
f
0
0
f
1
1
1
1
f
c
a
b
a
a
b
c
d
f
1
0
0
0
0
f
f
e
e
e
f
0
0
0
1
2
3
1
e
d
d
b
b
a
a
a
a
d
0
f
0
0
f
0
0
0
0
f
0
0
f
0
1
1
2
1
0
0
0
0
f
e
c
b
b
c
f
0
1
0
f
0
1
2
1
e
f
0
f
0
1
1
0
0
0
1
1
2
1
1
0
f
e
d
f
0
0
1
0
1
2
2
0
e
f
0
f
0
0
1
0
0
1
1
0
1
2
1
1
0
0
f
f
f
0
1
0
1
0
0
f
d
e
f
f
0
f
0
f
0
1
0
0
1
1
2
2
1
0
0
0
e
f
1
0
0
f
f
e
d
d
e
e
e
f
0
f
0
0
0
0
1
1
2
2
1
1
1
0
f
0
f
0
0
f
f
f
f
e
e
c
c
e
e
f
1
0
0
0
0
1
1
1
1
f
0
e
e
f
0
1
f
2
f
f
0
0
f
d
d
d
d
e
0
1
f
0
0
0
1
0
f
f
0
c
f
f
0
f
0
3
1
1
1
1
1
f
e
d
d
f
2
1
0
0
0
0
1
1
f
f
0
f
f
0
0
e
0
3
2
1
2
1
1
1
f
f
f
f
1
2
1
1
0
1
1
0
0
1
2
0
f
0
0
f
f
1
3
2
1
1
2
2
0
f
f
1
2
2
2
1
2
1
0
0
1
0
1
1
f
0
0
f
f
0
2
2
1
1
1
1
1
0
0
0
2
2
1
1
1
1
0
1
f
d
f
f
f
0
0
0
f
f
1
1
f
f
0
0
0
0
0
0
0
1
1
1
0
0
0
f
f
f
e
f
0
0
0
0
0
f
f
f
0
f
e
f
0
0
0
0
0
1
0
1
f
f
e
f
e
f
e
f
1
0
0
0
0
1
f
f
1
1
0
f
0
f
0
f
f
0
f
0
e
e
f
f
f
f
f
f
1
0
0
0
0
1
0
f
2
2
2
2
1
1
2
1
1
1
f
e
e
0
2
1
2
1
0
0
0
0
0
0
0
0
0
0
1
1
1
2
2
1
1
0
1
3
1
e
0
1
2
1
0
0
0
0
0
0
0
0
0
0
0
0
0
0
f
0
1
0
1
1
1
1
1
0
1
1
0
0
0
0
0
0
0
0
0
0
0
0
0
0
0
0
0
0
0
0
0
0
0
f
0
0
0
0
0
0
0
0
0
0
0
0
0
0
0
0
0
0
f
f
f
f
0
f
0
0
0
f
f
f
f
e
f
e
f
f
0
0
0
0
0
0
f
f
f
0
f
f
f
d
d
d
d
d
e
e
e
f
e
d
e
f
f
e
f
f
0
0
0
0
f
e
e
0
e
d
d
e
e
e
c
d
e
f
f
f
e
e
e
f
1
1
0
0
f
0
0
0
f
e
e
d
d
e
d
e
e
e
0
0
1
0
f
1
0
f
0
f
0
2
1
1
0
2
0
0
e
e
e
d
d
e
f
f
0
1
1
1
1
0
0
1
1
0
0
1
f
0
0
0
1
1
0
f
0
e
e
e
e
e
f
f
0
1
1
2
1
2
2
1
0
0
1
0
0
0
f
f
f
f
0
f
1
f
e
f
f
e
f
0
1
1
1
2
1
2
2
1
1
1
0
1
0
1
1
1
f
f
0
e
1
0
f
f
0
f
0
1
0
1
0
1
1
1
2
1
1
0
0
1
0
0
3
1
0
0
0
f
0
0
e
f
f
f
0
0
1
0
1
1
1
1
1
1
1
1
1
f
e
0
3
0
f
f
0
0
f
f
f
0
0
0
0
1
0
0
1
0
0
0
0
0
0
1
f
f
f
1
1
f
e
f
0
d
f
f
f
0
1
1
2
1
1
0
1
0
f
0
0
0
0
0
0
0
0
0
1
0
0
e
0
e
f
0
f
1
2
2
1
2
0
f
0
0
f
f
0
0
0
1
0
1
0
1
1
f
f
e
f
f
e
0
1
1
1
2
1
1
0
0
0
0
0
0
0
0
1
2
1
1
1
0
e
0
f
0
f
f
d
0
2
2
1
2
1
1
0
1
0
0
0
0
0
1
2
1
1
1
0
e
e
0
d
f
f
0
c
0
1
1
1
1
2
1
1
0
0
f
0
0
0
1
1
1
1
0
1
0
e
f
f
0
f
f
f
f
0
1
1
1
2
1
1
1
1
f
f
1
1
1
1
f
0
f
0
f
e
f
e
0
0
f
f
f
0
0
1
1
2
2
2
1
0
0
0
1
1
1
0
0
f
f
0
f
f
e
f
0
0
f
f
e
0
0
1
1
0
1
2
1
0
0
0
0
1
0
0
0
0
f
f
f
f
e
f
f
f
f
0
f
0
0
1
1
1
0
1
0
0
f
f
f
0
0
0
1
1
0
0
0
f
e
f
f
0
1
1
f
f
0
0
0
0
0
0
f
f
f
f
f
f
0
0
0
f
0
1
0
f
f
0
f
f
0
0
0
0
0
f
0
0
0
0
f
0
0
f
f
f
0
0
f
f
0
1
1
0
f
e
0
f
f
0
0
f
f
0
0
0
0
1
1
1
1
0
0
0
0
0
0
0
1
2
2
1
0
e
0
0
0
e
0
f
f
f
f
1
0
0
0
1
0
1
0
0
0
0
0
1
2
3
2
1
0
e
0
0
0
0
e
f
0
f
0
0
0
0
1
0
0
0
0
0
0
1
1
2
1
2
3
0
0
0
0
0
0
1
0
f
1
0
f
f
f
0
0
f
0
0
0
1
1
1
1
2
3
1
1
f
0
0
0
0
0
0
1
3
3
3
2
1
1
1
1
2
2
2
1
1
2
1
f
1
2
1
0
1
0
0
0
0
0
0
0
0
f
1
0
0
1
0
1
1
0
1
1
0
f
1
0
0
0
f
e
0
0
0
0
0
0
0
0
0
0
0
0
0
0
0
0
0
f
0
0
0
0
0
0
0
0
0
0
0
0
0
0
0
0
0
0
0
f
0
f
0
0
f
f
f
f
1
0
e
f
f
f
0
f
f
0
0
0
0
0
0
0
0
0
0
f
f
f
f
f
f
f
e
d
d
f
e
e
e
f
1
0
0
1
1
f
0
0
0
0
1
0
f
0
0
0
0
d
e
e
e
d
e
e
f
0
0
0
f
f
0
0
0
0
0
0
0
1
3
2
2
1
0
0
0
f
f
f
0
0
0
0
2
1
1
0
f
f
0
f
0
0
1
1
0
0
1
0
1
1
0
0
f
e
f
f
0
1
0
1
0
0
1
2
0
0
0
f
1
2
1
2
0
0
0
0
0
f
f
f
f
0
0
0
0
1
1
1
2
1
1
0
0
0
f
f
f
1
2
1
0
1
1
0
0
f
f
f
0
1
0
0
0
1
1
1
0
1
1
0
0
f
e
e
0
1
1
1
0
d
0
0
0
0
0
1
1
0
0
f
f
0
0
1
1
1
2
0
0
0
f
c
e
0
1
1
0
e
1
1
0
0
1
2
1
0
0
f
e
f
0
2
2
2
1
1
0
f
f
d
c
e
f
f
0
f
e
1
0
0
1
1
0
f
e
d
d
e
1
1
2
1
2
1
0
f
0
f
b
e
e
0
0
e
f
0
0
0
0
0
0
e
e
e
f
1
3
3
2
2
1
1
2
0
0
e
c
e
0
f
0
d
f
f
0
0
0
0
f
f
f
f
1
3
4
2
1
2
1
1
1
0
0
0
e
e
f
f
0
e
d
e
0
f
0
0
1
0
f
0
1
3
3
2
2
1
1
1
2
0
f
f
d
e
e
0
0
1
d
e
0
f
0
0
1
0
f
0
2
3
3
2
1
1
1
f
0
0
0
e
d
e
d
f
f
1
e
e
f
e
e
e
f
f
0
1
3
4
3
1
1
1
0
f
0
0
1
f
e
e
f
f
0
1
1
f
0
d
c
d
e
f
0
2
2
2
1
0
0
0
f
f
e
f
0
0
0
e
e
f
0
1
1
0
f
d
c
e
e
e
f
f
1
1
0
0
0
0
f
f
e
f
0
f
e
d
f
f
0
1
2
0
f
e
d
d
e
e
e
f
e
f
0
0
f
0
f
e
f
0
f
e
d
d
0
0
1
f
0
1
f
f
f
f
e
e
e
d
d
e
f
0
1
0
0
f
f
0
e
f
d
f
0
0
0
1
0
1
1
0
0
0
0
0
e
d
e
f
0
f
0
0
0
f
f
f
f
e
f
0
0
0
1
0
0
1
0
0
1
1
1
1
0
f
f
0
0
0
0
0
0
f
f
e
e
d
e
f
e
0
1
2
0
1
1
0
1
0
0
0
0
0
0
0
0
0
0
0
0
0
0
f
f
f
f
0
f
0
0
0
3
3
1
1
0
1
1
0
1
1
0
1
0
0
0
0
0
0
0
0
f
f
1
0
1
0
0
0
1
3
4
2
2
2
1
0
1
0
f
f
f
f
0
0
f
f
1
0
0
1
f
0
0
0
0
0
1
e
1
3
2
2
2
1
1
0
0
0
0
f
0
0
0
0
1
1
0
0
0
1
0
0
0
0
0
0
3
4
3
2
1
2
3
2
1
1
2
1
2
3
2
0
1
2
1
1
0
0
0
0
0
0
0
0
f
f
1
0
0
0
f
1
1
f
1
1
1
0
1
0
0
0
0
0
0
0
0
0
0
0
0
0
0
0
0
0
0
0
0
0
0
1
1
1
0
0
0
0
0
0
0
0
0
0
0
0
0
0
0
0
0
f
0
0
f
0
f
0
0
f
0
1
0
f
f
e
f
f
0
1
0
0
0
0
0
0
0
0
f
f
0
0
1
1
0
0
1
2
2
2
2
1
0
f
f
d
e
f
1
0
0
0
0
0
1
2
1
e
f
e
0
f
f
0
0
1
0
f
0
e
e
e
e
d
f
d
e
1
0
0
0
0
2
f
f
f
f
f
f
f
0
0
1
1
1
f
f
f
f
f
f
f
e
f
e
e
d
e
0
0
2
1
1
0
0
f
f
0
f
0
0
0
0
1
0
f
f
f
f
0
0
1
f
e
e
e
0
0
f
f
f
e
e
e
f
f
f
0
1
0
1
1
1
0
1
f
0
0
f
0
0
e
0
e
0
1
f
d
c
d
d
d
e
f
f
0
0
1
1
1
1
1
0
1
1
0
0
0
e
e
f
e
f
2
f
d
d
d
e
e
f
f
0
0
0
0
1
2
0
1
0
1
0
0
1
0
f
f
f
0
0
1
0
0
d
d
f
f
0
1
f
f
f
f
1
2
1
1
1
0
0
f
1
0
0
0
1
1
0
1
0
e
e
f
0
f
0
1
0
f
f
f
1
3
1
1
f
f
f
0
0
0
2
3
2
0
0
0
1
e
f
1
f
e
f
f
f
e
d
e
1
1
1
0
f
f
f
0
1
0
1
1
e
f
0
0
0
f
f
f
d
d
f
e
d
d
e
f
0
1
0
f
f
d
d
f
f
e
e
1
0
1
1
0
1
f
e
f
d
d
e
e
e
f
f
1
1
0
0
0
f
c
d
d
e
e
f
1
3
1
0
0
1
0
f
e
d
e
f
f
f
f
1
0
1
0
1
f
e
d
c
d
f
0
0
1
3
2
0
0
1
0
f
f
e
e
f
f
0
1
1
1
1
0
0
0
d
c
b
f
0
0
0
1
2
2
0
f
0
e
f
1
1
0
0
0
1
2
2
3
1
0
0
e
c
c
e
0
1
1
0
1
2
2
0
0
f
e
f
2
2
1
1
1
3
3
3
2
1
f
e
e
e
e
0
2
2
1
2
3
3
3
0
1
e
0
1
1
1
2
2
3
3
3
4
3
f
d
e
f
f
1
2
2
3
3
3
3
2
2
1
0
f
0
0
f
0
1
2
3
3
3
3
2
e
e
f
0
2
2
2
2
2
3
3
5
3
2
0
0
e
0
1
0
1
0
1
1
2
2
2
f
f
e
0
2
2
2
2
2
2
3
3
4
3
1
1
0
e
0
2
2
1
1
1
1
1
0
0
f
f
f
f
0
1
1
2
2
1
2
4
2
1
0
1
1
f
0
1
3
1
0
0
0
0
f
f
e
f
d
e
f
0
0
1
3
0
1
2
1
0
0
0
0
f
e
f
1
0
0
f
f
f
0
0
0
f
f
f
e
f
f
f
0
f
f
1
1
1
0
0
0
f
d
f
0
f
f
f
f
f
0
0
0
0
e
c
d
f
f
e
e
e
e
1
1
1
0
0
0
0
1
3
1
e
f
f
d
d
e
d
e
e
c
b
d
c
a
c
d
0
1
0
0
0
0
0
0
0
f
f
0
0
1
0
e
f
0
0
0
e
c
d
d
c
d
e
f
0
0
0
0
0
0
0
0
0
0
1
2
1
1
1
1
1
3
0
f
0
0
0
f
f
f
f
f
0
0
0
0
0
0
0
0
0
0
0
0
0
0
0
0
0
0
0
0
0
0
0
0
0
0
0
0
0
0
0
0
0
0
0
0
0
0
0
0
1
0
0
0
1
1
1
1
0
0
0
0
1
1
1
0
0
0
0
0
0
0
0
0
0
0
0
0
1
0
2
3
2
0
0
0
f
f
f
f
f
0
1
2
2
1
1
0
0
0
0
0
f
0
f
f
f
f
0
0
0
1
1
2
2
0
f
0
1
0
1
2
2
1
2
1
1
0
0
0
f
e
e
e
f
f
f
0
0
1
0
1
1
1
0
1
1
1
1
2
2
1
0
0
0
1
0
0
0
e
d
d
e
f
f
f
1
1
0
1
2
1
2
2
3
2
3
2
3
2
0
1
1
1
0
1
0
d
e
f
f
f
f
f
0
0
1
1
2
2
2
2
2
2
2
2
3
2
3
2
1
e
0
1
0
f
f
0
f
f
f
0
1
1
1
1
2
2
2
2
2
2
2
2
1
2
1
1
1
f
0
f
0
0
1
f
f
f
1
1
0
0
0
0
1
1
2
1
1
1
1
1
0
0
0
1
1
0
0
f
1
f
0
f
f
f
0
0
1
f
0
0
f
f
0
f
0
f
f
f
e
0
0
1
0
0
0
0
0
0
f
0
0
0
0
0
0
0
0
f
e
e
e
e
f
e
e
f
f
f
0
f
1
f
f
0
f
f
0
f
0
0
1
0
0
0
f
f
d
d
d
e
f
f
e
f
f
e
0
f
0
0
f
e
f
0
f
f
1
1
1
1
0
0
0
e
e
e
d
f
f
f
e
f
f
f
f
e
f
f
0
f
e
1
0
f
0
1
1
1
0
0
0
0
f
e
e
f
0
f
f
0
f
f
f
e
f
0
0
f
d
1
0
0
f
1
f
0
f
0
0
0
0
f
e
f
f
e
0
0
f
f
f
e
0
1
1
f
d
f
0
0
f
0
f
f
f
0
0
f
f
e
f
f
f
f
1
1
f
f
0
f
1
1
f
f
d
0
f
0
f
f
f
0
0
1
0
f
f
f
f
f
e
0
1
1
0
f
e
f
0
0
0
f
d
0
0
f
f
f
f
f
0
0
f
f
f
f
f
f
0
0
1
1
1
f
e
f
e
1
0
f
d
0
f
e
f
f
0
f
f
f
e
d
d
f
0
0
0
0
0
0
1
0
f
1
f
f
0
f
1
f
0
0
0
0
0
f
f
f
f
f
e
0
1
1
0
0
1
1
1
0
f
0
0
f
0
0
1
1
1
1
1
1
1
1
0
1
1
0
1
2
1
1
0
0
0
1
1
2
f
f
0
0
f
0
1
1
1
0
0
1
1
2
2
3
2
2
3
2
2
2
0
0
1
2
3
3
0
0
1
0
0
f
2
3
1
1
2
2
3
3
3
4
4
3
3
3
3
3
2
1
1
1
2
3
1
0
f
0
0
0
2
2
1
2
3
2
3
3
3
3
3
2
3
2
3
2
1
1
2
2
2
3
2
1
f
0
0
0
0
0
0
1
1
2
2
2
1
1
3
2
2
2
1
3
4
2
2
0
1
1
2
1
f
0
0
0
1
0
e
f
1
0
e
f
f
f
0
1
f
f
0
1
0
3
1
1
2
2
2
0
0
0
0
0
0
0
0
0
e
d
d
d
d
0
0
f
e
e
e
d
f
0
1
1
2
2
0
0
0
0
0
0
0
0
0
0
f
f
f
f
f
f
0
f
e
f
e
f
e
f
0
0
0
0
0
0
0
0
0
0
0
0
0
0
0
0
0
0
0
0
f
0
0
0
0
0
0
0
0
0
0
0
0
0
0
0
0
0
0
0
0
0
0
f
f
f
f
f
f
0
1
1
2
0
f
f
f
f
0
0
0
0
0
0
0
0
0
0
0
0
f
f
e
e
e
d
d
d
d
e
0
e
d
e
e
e
f
f
0
0
0
0
0
0
1
0
f
f
e
d
e
d
f
e
e
d
e
f
f
f
f
e
f
e
e
e
0
1
1
0
0
1
1
2
0
e
d
e
e
f
f
1
0
0
f
1
0
f
0
e
e
e
e
f
0
1
2
0
0
0
1
2
f
0
f
f
0
0
0
2
1
1
1
0
f
0
0
e
e
f
f
e
f
0
0
0
0
0
1
3
0
1
1
0
0
0
1
2
0
2
1
1
1
2
2
0
f
1
1
f
e
e
f
0
1
2
2
3
0
0
1
0
f
1
1
0
0
1
1
1
2
2
2
1
0
0
0
1
0
0
1
1
1
2
1
3
0
0
0
0
0
0
1
0
1
1
2
2
3
3
3
1
0
1
0
0
1
1
2
1
0
3
1
2
0
0
0
0
0
1
0
0
1
2
2
2
2
3
3
1
1
1
1
1
1
1
1
2
0
1
2
3
0
0
0
1
0
1
0
0
0
2
2
2
2
2
2
1
1
1
2
1
f
0
0
1
1
2
3
3
1
0
0
0
0
f
0
0
1
1
1
1
1
2
2
1
1
0
0
f
f
1
2
0
1
2
2
2
1
0
0
0
f
0
0
0
0
0
0
0
0
1
2
2
1
0
f
f
e
0
1
0
f
1
2
2
1
0
0
1
0
f
0
0
0
f
0
f
0
1
2
1
0
0
f
f
f
0
1
0
0
1
2
1
0
0
0
1
0
0
0
0
0
f
f
f
f
1
1
1
1
f
f
f
0
1
1
0
f
1
0
0
1
0
0
0
0
0
0
0
0
e
e
f
f
1
1
0
1
0
1
0
0
0
2
1
1
1
2
0
2
0
f
1
1
0
1
0
0
f
f
0
0
1
0
0
1
f
0
0
0
f
0
2
0
2
1
1
2
0
f
f
f
0
0
0
1
0
f
0
0
1
0
f
0
0
1
1
1
0
1
1
1
1
2
0
0
f
f
f
0
0
0
0
f
f
0
0
0
f
0
0
f
0
0
0
f
0
0
e
f
3
2
1
1
0
f
f
f
f
e
e
0
f
0
0
0
0
0
0
0
0
0
f
0
f
0
f
0
2
0
0
0
1
f
f
f
e
e
e
f
0
0
f
f
0
f
0
0
0
f
0
1
f
f
f
f
f
0
0
0
1
1
0
f
f
f
f
f
f
f
0
0
f
f
f
f
0
e
f
0
e
f
0
f
0
0
0
e
0
2
2
1
f
f
0
f
0
0
0
0
f
f
f
f
e
0
f
f
f
e
1
0
0
f
1
0
1
2
3
1
0
2
2
1
1
1
1
0
1
0
f
f
f
f
f
0
e
f
0
0
0
1
3
3
3
2
2
2
0
1
1
1
1
1
1
0
0
f
f
0
0
0
0
f
f
0
0
0
0
0
1
3
2
1
2
2
1
1
1
0
1
1
1
1
0
1
0
f
2
0
e
e
0
f
0
0
0
0
1
f
0
2
3
2
3
3
2
2
3
3
2
2
2
2
3
2
3
3
1
1
0
0
0
0
0
0
0
0
0
0
0
1
1
2
1
1
3
4
1
1
2
3
3
2
2
2
2
0
0
0
0
0
0
0
0
0
0
0
0
0
0
0
0
f
0
1
1
0
0
0
0
0
0
0
0
0
0
0
0
0
0
0
0
0
0
1
1
0
0
1
0
1
1
0
0
1
0
0
1
1
0
0
0
0
0
0
0
0
0
0
f
f
1
2
2
3
5
4
4
4
0
2
1
1
1
1
0
1
2
1
1
1
2
0
0
0
0
e
f
0
1
1
3
2
2
2
3
2
2
2
1
1
0
0
f
f
1
1
1
0
0
f
0
0
0
e
d
0
1
2
2
3
2
3
2
2
1
2
1
1
2
0
0
0
f
f
0
0
0
0
1
0
0
0
0
1
e
f
0
f
0
0
0
1
1
1
1
2
1
1
0
1
0
f
1
1
2
2
2
0
1
e
f
0
e
f
f
f
0
0
f
0
0
1
1
1
0
f
0
f
f
f
0
0
2
1
1
f
0
e
e
1
0
f
f
0
f
0
f
f
0
1
1
0
f
f
f
e
0
0
f
0
1
2
1
0
e
f
f
1
1
0
f
f
0
0
f
0
1
1
0
0
0
f
0
f
f
0
f
f
0
1
0
0
e
0
0
0
0
f
f
f
f
0
0
0
1
0
0
0
0
f
0
0
0
f
0
f
e
0
f
0
f
f
0
f
0
0
0
0
f
0
0
1
0
f
0
f
0
0
0
0
f
f
1
0
d
f
f
f
f
f
f
f
0
0
0
0
0
0
0
f
f
f
f
0
f
0
1
0
f
f
1
1
f
e
e
f
e
e
f
0
0
0
f
f
0
0
0
0
1
0
f
0
0
0
1
0
1
0
1
3
1
f
f
1
f
e
f
f
f
f
f
0
0
0
1
2
2
1
1
1
1
1
1
1
f
1
1
1
1
2
2
f
f
d
0
f
0
0
f
0
0
1
2
2
3
2
0
1
1
1
0
0
0
0
f
f
1
3
1
f
0
f
0
f
0
0
0
0
1
1
3
3
3
2
1
2
1
0
1
f
f
f
f
0
2
2
2
f
0
0
1
f
0
0
f
0
1
2
3
3
2
1
1
2
1
0
0
f
f
0
1
0
4
2
2
0
0
1
1
1
f
0
1
1
2
2
2
2
1
1
1
2
1
0
0
f
1
0
1
f
1
1
1
f
0
0
1
0
0
1
0
1
1
1
1
1
1
0
1
1
0
0
0
0
0
1
1
0
1
0
0
0
e
f
f
1
1
0
0
0
1
1
1
0
1
1
1
2
1
1
1
0
1
2
2
f
0
2
0
0
f
0
1
2
1
1
1
0
1
1
1
0
0
1
1
1
0
1
1
2
2
1
1
f
f
2
f
f
1
2
2
1
0
0
1
0
0
0
0
0
1
0
0
1
2
1
1
1
0
1
1
f
f
1
0
0
1
2
2
1
0
0
0
1
0
0
1
0
0
0
0
1
1
1
1
1
1
1
0
f
f
f
0
0
0
2
2
0
0
f
f
1
0
0
0
0
0
0
0
1
1
2
1
2
2
2
2
f
0
f
0
0
0
0
f
f
e
f
f
0
0
0
0
0
0
0
0
1
0
1
1
1
1
1
1
1
1
0
0
0
0
1
e
d
f
0
f
f
f
0
f
f
f
0
0
0
0
0
f
f
f
f
f
d
0
0
0
0
0
0
0
2
1
1
1
f
f
0
0
0
e
0
f
0
0
0
e
e
f
f
1
f
0
0
0
0
0
0
0
f
e
0
0
0
0
f
0
0
e
0
0
0
0
0
0
0
f
f
f
0
0
0
0
0
0
0
0
0
0
0
0
0
0
0
0
0
0
1
0
0
0
0
0
0
0
0
0
0
0
0
0
0
0
0
0
0
0
1
1
1
1
1
0
0
0
f
0
3
2
0
1
1
f
0
0
0
0
0
0
0
0
0
f
0
1
2
3
3
5
4
4
3
1
2
2
2
2
1
1
2
2
1
2
2
1
0
0
0
0
f
0
0
1
3
4
3
2
1
2
2
1
1
1
1
0
f
0
1
1
0
1
1
0
0
0
0
0
f
f
0
0
2
0
1
f
0
0
f
f
f
e
f
e
f
f
f
e
f
f
f
0
0
0
0
0
0
0
0
f
0
0
0
f
0
f
f
f
e
e
e
d
e
e
e
e
f
e
f
1
f
f
0
1
0
2
0
0
0
0
0
0
f
0
f
0
0
1
1
0
f
f
f
f
e
c
d
f
f
0
1
2
1
1
0
0
1
f
f
0
0
f
f
1
1
2
1
1
0
f
0
0
f
d
d
e
f
f
f
2
f
f
0
0
0
f
f
0
0
1
0
0
1
1
1
0
f
f
f
f
f
d
c
c
e
0
0
1
0
0
0
0
0
0
0
0
1
0
1
1
1
0
0
f
f
f
f
f
f
e
c
c
0
2
1
0
f
1
e
0
2
0
f
0
f
0
0
e
f
f
f
f
f
f
f
f
e
e
d
e
f
0
0
f
0
f
e
0
1
0
0
f
e
e
e
e
f
f
0
0
0
1
1
0
f
f
d
f
c
0
f
f
0
f
f
0
f
f
f
e
d
e
e
0
1
1
1
0
1
2
1
0
0
f
f
0
f
2
f
0
f
f
f
f
f
f
f
e
e
f
1
3
2
1
1
1
2
2
1
0
f
0
2
1
1
2
0
f
e
1
1
f
1
0
0
f
0
0
2
3
2
1
2
1
2
2
2
1
0
1
0
1
3
2
0
0
d
0
1
1
1
1
0
0
1
2
2
2
2
2
2
1
2
2
1
1
1
1
1
1
1
2
1
1
1
1
2
2
2
1
0
1
1
3
3
2
1
1
2
1
1
1
0
0
1
0
0
2
2
0
0
0
1
1
2
1
2
1
1
1
1
2
2
2
2
2
1
1
0
0
f
0
0
f
e
3
2
0
1
0
0
2
2
1
0
0
f
0
1
2
2
2
1
2
1
1
1
0
f
f
0
0
f
3
2
1
f
e
0
1
2
1
f
e
e
f
0
1
1
0
2
1
1
0
0
0
f
0
0
0
0
1
2
0
0
f
0
2
2
1
e
e
e
e
e
e
f
0
0
0
0
f
0
0
f
f
f
f
0
1
2
0
f
1
2
1
0
f
f
e
e
d
e
d
e
e
e
e
f
e
f
f
e
e
e
f
1
f
0
0
f
f
1
0
0
f
e
e
e
d
e
d
e
d
d
e
f
e
e
e
e
f
f
0
0
f
f
0
0
0
1
0
0
0
0
0
e
d
e
d
d
e
e
e
d
e
e
e
f
0
1
1
0
f
f
0
0
0
0
1
3
2
2
1
1
f
0
f
e
f
0
f
0
1
f
0
2
3
2
1
1
1
0
0
0
0
1
0
3
4
3
3
3
2
1
1
2
1
1
0
1
1
0
2
4
3
1
0
0
1
0
0
0
0
0
1
1
0
1
3
4
4
4
3
2
2
3
1
2
2
1
2
2
2
1
2
1
0
0
0
0
0
0
0
0
0
1
1
1
1
2
2
2
2
3
2
1
2
2
2
2
1
0
0
0
0
0
0
0
0
0
0
0
0
0
0
0
0
0
0
0
1
f
0
0
0
0
0
0
0
0
0
0
0
0
0
0
0
0
0
1
1
1
2
1
1
2
2
3
2
f
0
2
2
2
2
2
1
1
1
0
0
0
0
0
0
1
0
2
1
2
3
3
2
2
2
3
1
1
1
2
2
2
1
2
3
3
2
0
f
0
0
0
0
e
0
1
f
1
0
2
3
2
2
1
2
1
1
1
1
1
1
1
2
2
2
0
e
0
0
0
0
e
e
f
f
f
0
0
1
1
0
0
f
1
0
0
1
0
0
1
0
f
f
f
f
1
2
0
0
f
f
e
d
e
f
0
0
1
0
1
1
1
0
0
1
0
0
1
0
0
f
f
1
2
2
0
0
0
f
f
f
f
1
0
0
0
1
1
0
1
1
0
0
f
0
f
f
f
f
0
0
0
0
0
f
1
f
f
0
0
1
1
1
0
1
0
0
0
1
0
f
f
f
f
f
e
e
f
f
f
0
0
0
f
f
0
0
1
0
1
1
0
0
0
0
0
f
f
e
e
f
f
e
d
e
e
e
f
0
0
f
0
1
f
1
1
0
0
0
0
0
0
f
f
d
e
d
e
f
e
e
d
e
0
e
e
f
0
f
0
f
1
1
2
1
0
0
1
0
f
f
f
e
e
e
f
f
e
f
e
0
1
d
e
e
0
0
f
e
f
1
2
1
1
1
0
0
0
f
f
e
f
f
f
f
f
0
f
1
3
0
e
0
0
0
f
0
f
1
1
1
1
1
0
0
f
e
f
f
f
0
f
f
f
f
0
2
4
0
f
0
f
f
f
0
0
0
1
0
0
1
1
0
f
f
f
1
0
f
0
0
f
0
1
2
3
1
f
1
0
f
f
e
f
0
0
0
f
0
0
1
f
0
1
1
f
f
0
f
0
1
1
2
2
1
0
1
0
0
f
e
e
f
0
0
f
0
0
0
1
1
1
1
f
f
0
0
1
0
0
1
1
2
e
f
0
0
0
e
e
f
f
f
f
f
0
1
1
2
1
1
f
0
f
f
f
0
0
1
1
3
0
0
0
f
f
f
e
f
f
e
f
f
1
2
2
1
0
0
f
f
f
f
0
f
1
1
1
3
0
1
0
f
f
f
e
e
e
e
0
0
2
2
3
1
0
f
f
0
0
0
f
0
1
1
1
2
0
f
f
f
0
e
e
d
d
e
0
1
2
3
2
1
0
0
0
f
0
f
0
0
1
1
0
1
0
f
0
f
1
f
e
e
d
e
0
1
2
2
2
1
1
1
0
f
0
0
0
0
0
0
f
1
0
f
f
f
0
f
e
d
d
e
0
2
2
2
1
2
2
1
0
1
0
0
0
f
1
0
f
1
3
0
f
0
0
f
f
e
e
e
f
0
1
0
1
2
1
1
1
1
0
0
0
0
0
f
f
1
1
0
0
0
f
e
e
f
e
e
f
f
e
f
f
0
1
1
1
0
1
1
1
1
1
1
0
1
f
0
0
0
f
e
e
f
d
d
e
f
f
f
1
0
0
1
1
0
2
2
1
f
f
0
2
0
0
0
0
0
0
0
f
f
e
e
d
d
f
f
f
0
f
0
1
1
1
1
1
0
0
0
2
0
0
0
0
0
0
0
1
0
f
f
f
e
f
1
2
0
1
0
0
0
1
1
0
f
f
0
1
0
0
0
0
0
0
0
0
0
0
f
f
0
f
f
0
0
0
0
f
0
0
0
f
0
f
0
0
0
0
0
0
0
0
0
0
0
0
0
0
0
0
0
0
1
0
0
0
0
0
0
0
0
0
0
0
0
0
0
0
0
0
0
1
0
1
1
1
1
2
2
2
2
f
0
0
2
2
2
3
2
2
2
0
0
0
0
0
0
1
1
2
1
2
3
2
0
0
1
2
2
0
0
1
1
2
3
2
2
3
3
f
0
0
0
0
0
0
2
1
0
0
0
1
2
1
0
0
1
0
0
0
0
1
1
1
2
3
3
1
f
1
0
0
0
e
f
0
f
e
0
0
1
0
0
0
f
0
0
0
0
f
0
1
2
2
3
1
2
1
2
0
0
f
f
e
d
e
0
0
0
0
1
0
0
0
0
f
f
e
f
1
1
1
2
3
2
3
2
0
f
0
e
f
f
f
0
0
0
0
1
0
0
f
f
d
e
d
f
f
0
2
1
2
2
1
1
0
e
0
e
d
0
f
0
1
0
2
2
1
0
f
e
e
f
f
f
f
0
1
1
2
2
0
1
1
e
f
f
e
f
0
0
0
1
1
2
2
0
f
e
e
0
0
f
0
1
0
2
2
1
0
1
0
f
0
f
e
e
0
0
0
1
0
1
0
1
f
e
e
f
0
0
0
1
f
1
4
2
0
f
f
0
0
f
f
f
f
0
1
1
1
1
1
1
0
f
d
f
0
0
0
1
0
1
4
1
0
f
f
0
f
d
e
f
0
0
0
1
0
1
1
1
0
e
e
f
0
0
f
1
0
2
4
1
1
0
f
f
d
f
e
f
1
2
1
1
1
1
2
2
0
e
f
0
f
f
0
1
1
2
4
1
f
e
1
f
f
f
f
0
1
1
1
1
2
2
1
0
f
f
e
f
f
f
0
0
2
3
2
0
e
f
1
f
0
e
e
0
0
0
1
1
1
1
0
0
0
f
f
f
0
f
f
1
1
2
2
0
d
f
0
f
1
f
e
f
f
0
1
2
1
1
0
1
0
f
f
f
0
f
0
0
0
2
2
1
d
e
f
0
f
f
e
f
f
0
2
1
0
1
0
1
1
0
f
e
f
f
0
0
0
2
1
1
d
f
0
0
f
f
f
0
0
f
1
1
2
1
1
0
1
f
f
e
f
0
1
0
1
2
2
0
d
0
f
f
f
f
f
f
f
0
0
1
1
0
1
0
0
f
f
f
f
f
0
f
0
1
1
0
e
f
0
0
0
0
f
f
f
0
1
1
1
1
1
0
f
0
f
0
0
0
1
1
1
0
0
f
f
0
0
0
0
f
f
f
f
0
1
2
2
2
2
1
0
1
0
1
0
0
0
1
0
f
e
e
f
0
1
e
e
f
f
f
f
0
1
2
1
2
1
2
2
1
1
1
0
0
1
0
0
e
e
0
1
0
1
0
e
f
f
f
f
0
0
0
1
1
2
2
2
2
2
1
1
1
0
e
f
f
e
0
2
0
0
0
f
f
f
0
0
f
0
1
1
0
2
2
2
2
2
1
0
f
f
d
e
e
e
0
1
0
0
0
0
f
f
e
e
e
f
0
1
1
2
2
2
1
0
f
f
f
d
d
e
f
0
f
f
0
0
0
f
0
e
c
e
e
d
f
0
0
0
0
e
f
0
e
e
e
d
e
0
0
0
f
f
0
0
0
0
0
f
e
d
c
d
c
d
0
f
e
c
e
e
e
e
e
f
f
f
f
f
0
0
0
0
0
0
0
0
0
0
f
e
f
e
f
e
f
e
e
e
e
f
f
f
e
f
0
0
0
0
0
0
0
0
0
0
0
0
0
0
0
0
0
0
0
0
f
0
0
0
0
0
0
0
0
0
0
0
0
0
0
0
0
0
0
0
0
f
0
0
0
f
e
0
0
f
f
f
e
f
f
0
0
0
0
0
0
0
0
0
0
f
f
0
f
f
0
f
e
f
0
0
0
1
1
0
1
0
e
e
f
e
f
0
0
0
0
1
1
2
1
0
1
f
0
f
e
f
f
f
0
1
0
0
0
1
1
e
e
e
f
0
0
0
0
0
1
0
1
1
0
1
1
1
1
0
0
f
0
f
f
0
0
0
1
f
f
0
0
0
0
0
0
1
1
f
2
0
f
0
1
1
0
0
0
f
0
0
0
0
0
0
f
0
1
0
0
1
0
0
1
f
e
e
0
f
e
f
0
0
0
f
0
0
0
0
0
0
1
0
f
f
1
1
2
3
0
0
0
e
0
f
0
f
f
f
f
f
f
f
e
0
0
0
0
0
1
1
0
0
1
0
1
2
f
e
e
f
0
f
0
f
f
e
f
e
0
0
0
0
0
0
0
0
1
1
1
1
0
1
3
2
1
0
f
0
f
0
e
f
f
0
f
f
f
f
f
0
0
0
0
0
f
0
1
1
f
0
4
2
1
f
f
f
f
f
e
f
f
f
f
f
0
0
1
0
0
0
0
f
f
f
e
d
d
d
2
1
1
f
e
e
f
f
f
f
f
f
e
0
1
1
0
0
0
1
0
0
f
e
d
b
b
b
f
0
0
0
f
e
f
f
0
0
0
f
f
1
0
1
0
0
0
1
1
0
0
f
e
c
b
b
f
0
0
2
f
f
f
f
0
1
1
0
0
0
0
0
0
f
0
1
2
1
0
0
0
e
d
e
1
0
f
1
0
e
1
1
0
1
0
0
f
f
f
f
f
0
1
0
1
0
0
0
0
0
f
0
3
0
0
0
1
1
0
1
0
1
0
e
e
d
e
f
f
0
0
1
0
1
0
1
1
0
1
1
2
1
0
f
0
1
2
1
2
1
f
e
c
c
c
d
e
0
0
0
0
1
2
2
1
0
0
2
0
f
f
0
0
1
1
1
1
1
0
e
d
d
d
b
e
0
0
1
1
1
1
1
0
e
1
1
e
f
f
f
0
1
3
2
1
1
1
1
0
f
e
d
f
1
1
1
0
1
1
0
0
f
0
1
0
f
1
0
f
1
2
1
1
2
1
1
2
1
1
f
0
1
2
2
1
1
0
0
f
f
1
2
1
e
1
0
0
0
0
1
0
1
2
2
1
1
2
0
1
2
2
3
2
2
1
0
0
0
1
2
1
0
1
1
0
f
f
0
0
1
1
0
1
1
0
0
0
1
1
1
0
2
1
1
1
0
f
0
1
f
0
1
1
f
f
0
f
e
e
f
f
0
f
f
f
0
0
0
1
1
1
1
1
f
f
0
0
0
0
0
0
2
f
1
0
f
f
f
0
0
0
0
f
0
0
0
1
0
0
0
0
f
f
0
f
1
0
0
0
1
0
1
0
1
0
1
2
0
f
0
f
0
f
f
0
f
f
f
1
0
1
1
0
1
0
0
0
1
1
1
1
1
2
2
2
0
f
0
f
e
e
d
d
e
e
f
0
0
1
1
0
0
0
0
0
0
0
0
f
d
d
d
c
e
c
c
a
c
f
e
c
e
e
f
0
f
e
0
0
0
0
0
0
0
0
0
0
f
f
0
f
e
e
f
f
e
1
1
0
f
f
0
0
0
0
0
0
0
0
0
0
0
0
0
0
0
0
0
0
0
0
0
0
0
0
0
0
0
0
0
0
0
0
0
0
0
0
0
0
0
0
0
0
1
0
0
0
f
f
e
0
0
1
1
0
f
e
e
f
1
0
0
0
0
0
0
0
0
0
1
0
0
f
0
1
1
0
0
f
0
f
0
0
f
f
0
f
f
0
1
0
0
0
0
0
1
1
0
1
1
1
2
0
1
2
3
2
2
2
1
1
1
0
0
f
f
f
1
1
0
0
0
1
2
3
1
0
1
2
2
1
2
2
2
1
1
1
2
1
1
0
f
e
e
e
f
f
f
0
0
0
1
1
f
0
1
1
0
0
1
1
2
2
2
2
2
1
1
1
0
f
f
f
e
0
0
0
0
1
1
1
f
0
0
0
0
2
2
1
2
2
3
3
3
2
2
1
1
0
0
f
f
0
0
0
0
2
0
1
1
0
0
0
1
1
1
1
2
2
3
2
2
1
0
1
1
f
0
f
f
0
1
1
f
1
0
1
0
f
f
1
0
0
1
0
1
0
1
1
1
1
1
1
0
0
2
f
f
0
1
1
0
0
1
1
0
0
0
1
0
f
0
e
f
f
f
f
0
1
1
1
0
0
2
2
e
f
1
1
0
f
0
2
0
0
1
0
f
e
e
e
d
d
e
d
0
0
0
0
1
0
1
2
d
f
1
0
0
0
0
1
0
f
0
f
e
d
e
e
d
e
f
f
f
1
0
1
1
0
0
f
0
1
2
f
0
0
1
f
f
e
e
e
e
f
f
e
e
f
0
0
f
0
1
1
1
0
f
e
e
0
1
0
f
0
0
0
e
e
e
e
f
f
f
f
f
1
1
1
0
0
1
1
0
f
e
d
f
f
0
0
0
0
f
f
f
e
f
0
f
0
f
f
0
0
1
0
0
0
0
0
0
f
f
f
f
f
1
0
0
1
e
0
0
0
0
0
f
f
f
f
f
0
0
1
0
0
0
f
0
0
0
f
0
0
1
1
0
2
1
2
1
0
0
f
e
f
0
f
0
0
0
f
0
1
0
0
f
0
0
0
0
0
0
1
0
2
1
1
2
0
0
0
f
f
f
f
f
0
f
0
0
1
0
0
f
0
f
0
0
0
0
1
1
1
1
2
0
1
1
0
0
0
0
0
0
0
0
0
1
1
0
1
0
f
0
0
0
0
1
0
f
1
0
1
0
1
1
1
1
1
0
0
0
1
0
0
1
1
1
1
f
0
f
0
0
1
1
f
0
0
1
1
1
2
2
1
1
0
0
0
f
0
0
0
0
0
0
0
f
0
f
0
0
f
1
f
f
1
1
1
0
f
0
1
0
f
f
f
0
f
f
0
1
0
0
0
f
f
f
1
0
f
f
0
f
1
1
1
0
f
1
1
0
0
0
0
0
0
0
0
1
0
0
0
0
f
0
1
0
f
e
0
0
0
3
2
2
0
0
1
0
f
1
1
f
0
0
1
0
0
1
0
1
0
1
2
1
f
f
0
0
0
1
3
3
2
2
2
0
0
0
0
0
1
1
1
1
1
0
0
0
1
1
1
1
0
0
0
0
0
1
f
0
2
3
4
4
3
3
3
3
2
1
1
1
1
1
1
1
0
f
f
0
0
0
0
0
0
0
1
0
f
1
3
4
3
4
3
2
2
3
2
2
2
2
2
1
0
0
1
0
0
0
0
0
0
0
0
0
0
1
1
2
1
2
1
1
0
2
1
2
1
0
1
0
0
0
0
0
0
0
0
0
0
0
0
0
0
0
0
0
0
0
0
0
0
0
0
0
0
0
0
0
0
0
0
0
0
0
0
0
0
0
0
0
f
f
e
f
f
e
e
e
d
f
0
e
e
d
f
f
f
0
0
0
0
0
0
0
0
0
f
f
e
e
e
f
0
2
1
1
0
f
f
c
9
b
c
d
e
e
1
1
1
0
0
0
0
1
0
f
0
1
1
1
1
2
2
1
0
f
f
e
c
a
9
b
d
d
f
1
1
0
0
0
0
1
2
3
2
1
0
2
2
2
2
1
1
0
0
e
d
c
b
a
c
d
e
0
0
0
0
0
0
1
1
2
3
2
2
1
1
1
1
1
2
1
1
0
f
e
c
b
a
c
d
f
0
0
0
0
0
0
2
2
1
2
0
0
0
0
1
1
1
0
0
1
f
e
b
b
b
c
d
d
e
f
0
0
0
f
2
3
1
0
0
e
0
0
0
0
0
0
1
0
0
e
b
a
a
a
b
c
d
f
f
0
f
f
2
3
0
f
0
f
0
0
e
0
1
2
3
2
1
e
c
a
8
b
c
d
d
f
0
0
f
e
0
2
1
0
f
e
e
e
e
0
4
5
5
3
0
d
b
9
9
c
e
d
f
e
f
0
0
d
0
0
0
f
e
c
d
0
1
2
5
6
4
1
f
b
a
9
b
d
f
f
1
0
1
0
0
f
2
f
f
e
e
e
0
2
3
4
5
4
1
e
d
b
b
c
d
e
0
0
2
0
1
0
1
0
0
f
f
f
f
0
2
2
2
2
3
2
0
e
d
d
d
e
f
f
1
3
3
1
1
1
f
0
0
f
f
0
0
1
2
1
1
2
2
1
f
f
f
f
e
f
1
f
1
3
4
3
1
f
0
0
1
0
f
e
f
0
1
f
f
0
1
1
0
f
f
f
0
1
1
0
1
0
3
2
1
f
0
1
1
0
f
0
f
1
0
f
f
0
1
1
0
0
f
e
0
1
1
2
1
1
1
2
2
0
1
1
0
0
f
0
1
0
1
0
f
f
1
1
f
1
f
0
0
1
1
2
2
1
0
2
1
0
1
0
0
f
e
0
0
0
0
f
e
e
0
0
f
0
f
0
1
1
1
1
1
0
0
0
f
0
1
1
f
f
f
0
0
0
0
f
e
e
f
f
f
0
1
0
1
2
2
2
1
0
1
1
2
0
1
0
0
f
0
f
f
f
0
0
e
e
f
0
0
1
1
0
1
1
2
1
1
1
1
2
2
0
1
0
f
e
f
f
0
0
1
0
f
f
f
1
0
0
0
1
1
1
1
1
1
1
0
1
0
0
1
f
f
e
d
f
f
0
0
f
0
f
f
0
0
0
f
1
1
0
f
0
f
f
1
f
0
0
1
1
3
1
e
0
0
f
0
0
0
f
0
f
f
f
f
0
0
1
0
0
e
e
0
f
0
0
0
1
3
2
f
f
1
f
0
0
1
0
0
f
f
f
0
0
1
1
f
e
d
f
0
0
0
0
0
2
1
0
1
0
2
1
0
0
f
f
0
0
f
f
0
f
0
e
f
e
f
f
2
1
0
0
0
0
f
1
1
2
2
2
0
f
f
f
e
f
f
f
f
0
0
f
e
e
f
f
0
0
0
0
0
0
0
0
0
f
0
f
e
e
e
e
f
e
e
e
1
1
0
f
e
e
f
0
0
0
0
0
0
0
0
0
0
0
0
0
0
0
f
e
d
d
f
f
f
0
f
f
f
f
0
0
0
0
0
0
0
0
0
0
0
0
0
0
0
0
0
0
0
0
0
0
0
0
0
0
0
0
0
0
0
0
0
0
0
0
0
0
0
0
0
0
0
0
0
0
0
0
0
0
0
0
0
0
0
0
0
0
0
0
0
0
0
0
0
0
0
0
0
0
0
0
0
0
0
0
0
0
0
0
0
0
0
0
0
0
0
0
0
0
0
0
0
0
0
0
0
0
0
0
0
0
0
0
0
0
0
0
0
0
0
0
0
0
0
0
0
0
0
0
0
0
0
0
0
0
0
0
0
0
0
0
0
0
0
0
0
0
0
0
0
0
0
0
0
0
0
0
0
0
0
0
0
0
0
0
0
0
0
0
0
0
0
0
0
0
0
0
0
0
0
0
0
0
0
0
0
0
0
0
0
0
0
0
0
0
0
0
0
0
0
f
0
0
0
0
0
0
0
0
0
0
0
0
0
0
0
0
0
0
0
0
0
0
0
0
0
0
0
0
0
0
0
0
0
0
0
0
0
0
0
0
0
0
f
0
0
0
0
0
0
0
0
0
0
0
0
0
0
0
0
0
0
0
0
0
0
0
0
0
0
0
0
0
0
0
0
0
0
0
0
0
0
0
0
0
0
0
0
0
0
0
0
0
0
0
0
0
0
0
0
0
0
0
0
0
0
0
0
0
0
0
0
0
0
0
0
0
0
0
0
0
0
0
0
f
0
0
0
0
0
0
0
0
f
0
0
0
0
0
0
0
0
0
0
0
0
0
0
0
0
0
0
0
0
0
0
0
0
0
0
0
0
0
0
0
0
0
0
0
0
0
0
0
0
0
0
0
0
0
0
0
0
0
0
0
0
0
0
0
0
0
0
0
0
0
0
0
0
0
0
0
0
0
0
0
0
0
0
0
0
0
0
0
0
0
0
0
0
0
0
0
0
0
0
0
0
0
0
0
0
0
0
0
0
0
0
0
0
0
0
0
0
0
0
0
0
0
0
0
0
0
0
0
0
0
0
0
0
0
0
0
0
0
0
0
0
0
0
0
0
0
0
0
0
0
0
0
0
0
0
0
0
0
0
0
0
0
0
0
0
0
0
0
0
0
0
0
0
0
0
0
0
0
0
0
0
0
f
0
0
0
0
0
0
0
0
0
0
0
0
0
0
0
0
0
0
0
0
0
0
0
0
0
0
0
0
0
0
0
0
0
0
0
0
0
0
0
0
0
0
0
0
0
0
0
0
0
0
0
0
0
0
0
0
0
0
0
0
0
0
0
0
0
0
0
0
0
0
0
0
0
0
0
0
0
0
0
0
0
0
0
0
0
0
0
0
0
0
0
0
0
0
0
0
0
0
0
0
0
0
0
0
0
0
0
0
0
0
0
0
0
0
0
0
0
0
0
0
0
0
0
0
0
0
0
0
0
0
0
0
0
0
0
0
0
0
0
0
0
0
0
0
0
0
0
0
0
0
0
0
0
0
0
0
0
0
0
0
0
0
0
0
0
0
0
0
0
0
0
0
0
0
0
0
0
0
0
0
0
0
0
0
0
0
0
0
0
0
0
0
0
0
0
0
0
0
0
0
0
0
0
0
0
0
0
0
0
0
0
0
0
0
0
0
0
0
0
0
0
0
0
0
0
0
0
0
0
0
0
0
0
0
0
0
0
0
0
0
0
0
0
0
0
0
0
0
0
0
0
0
0
0
0
0
0
0
0
0
0
0
0
0
0
0
0
0
0
0
0
0
0
0
0
0
0
0
0
0
0
0
0
0
0
0
0
0
0
0
0
0
0
0
0
0
0
0
0
0
0
0
0
0
0
0
0
0
0
0
0
0
0
0
0
0
0
0
0
0
0
0
0
0
f
f
f
0
f
f
e
e
0
0
f
f
f
f
0
f
f
f
0
0
0
0
0
0
0
f
f
0
f
f
0
0
f
f
f
f
e
e
e
f
f
e
f
0
f
f
0
0
0
0
0
0
1
0
f
0
0
f
d
e
d
d
c
c
c
c
e
0
f
e
e
d
e
f
f
f
0
0
0
0
1
0
0
1
0
f
f
f
f
0
0
1
f
d
d
e
e
d
d
e
d
e
f
f
f
0
0
0
1
0
1
1
0
0
1
0
0
1
2
1
0
f
e
e
f
e
e
f
f
0
0
f
e
0
0
f
f
1
0
f
1
0
1
1
1
1
1
0
1
0
1
0
f
e
e
0
f
0
f
0
0
0
0
1
1
2
1
f
0
0
0
1
0
0
0
1
0
0
1
0
0
f
f
e
f
f
f
0
0
f
f
2
1
1
1
1
1
1
1
0
1
1
0
1
1
0
f
0
0
f
e
e
e
e
e
e
0
f
0
2
0
1
0
1
1
0
0
1
1
2
1
1
1
1
0
1
1
0
e
e
f
d
e
0
f
0
0
1
0
0
0
2
2
1
1
1
2
2
1
1
1
2
1
1
0
f
e
e
e
d
f
f
f
0
1
1
2
1
2
3
2
2
2
1
2
2
0
0
1
1
2
2
1
0
f
e
f
d
c
f
0
1
0
1
2
2
4
2
1
1
1
0
0
0
e
e
0
1
2
2
2
0
f
e
f
d
e
0
1
1
f
1
2
1
2
0
0
0
0
0
0
f
d
e
1
1
2
2
1
0
0
0
0
f
f
2
3
1
f
0
2
2
1
f
f
e
f
f
f
f
f
0
0
1
2
2
1
1
0
0
0
1
0
2
3
1
0
0
0
1
f
e
e
f
f
e
f
e
e
0
1
2
2
2
1
0
0
0
f
f
f
f
1
0
0
0
0
0
0
f
f
f
f
d
d
d
e
0
1
2
2
1
f
f
f
0
0
f
f
f
1
1
0
0
f
0
f
e
e
d
e
d
d
d
f
1
3
2
1
0
f
f
f
f
0
f
0
2
2
1
1
0
0
0
f
e
e
d
c
c
c
e
f
1
2
2
0
0
0
f
f
e
f
e
f
2
2
1
f
1
0
0
0
e
d
e
d
c
e
0
1
1
2
1
0
0
0
0
f
e
e
e
0
1
2
1
0
0
f
f
f
d
d
e
e
d
e
1
2
2
1
0
1
0
0
f
0
f
e
f
2
2
1
0
0
f
f
e
e
e
d
d
f
f
1
1
1
1
1
1
1
1
0
0
0
f
e
0
2
1
f
0
0
f
f
f
e
d
e
e
f
0
0
0
0
0
1
0
0
0
0
1
0
f
f
1
2
1
0
0
0
0
e
e
e
e
e
e
e
f
f
0
1
0
0
0
0
0
0
1
0
0
1
2
1
1
0
0
0
0
0
e
f
f
f
e
f
f
f
f
f
f
f
f
0
1
1
2
1
1
2
1
2
2
1
0
0
0
f
0
1
0
f
f
f
e
e
f
f
f
1
0
0
1
1
f
f
0
0
f
f
1
0
0
0
0
0
1
f
f
0
1
2
1
0
0
f
0
1
1
0
1
1
2
f
0
0
1
0
0
0
0
0
0
0
0
1
0
0
0
1
0
1
1
0
2
1
1
1
2
1
3
1
1
1
1
0
0
0
0
0
0
0
0
0
0
0
0
0
0
0
0
0
0
1
0
0
0
0
0
0
0
0
0
0
0
0
0
0
0
0
0
0
0
0
0
1
0
1
1
1
1
1
2
2
1
0
0
0
0
0
0
0
0
0
0
0
0
1
1
0
0
0
0
1
1
2
2
2
2
1
2
3
2
2
1
2
1
1
1
1
1
0
0
0
0
1
0
1
2
0
1
2
1
2
3
4
4
3
2
2
3
3
1
0
f
0
1
2
0
1
0
0
1
2
2
2
1
1
1
2
2
2
2
2
2
2
2
2
2
2
2
0
f
f
e
f
0
0
0
0
0
2
1
2
0
0
1
e
f
0
0
0
0
1
1
2
2
2
3
3
2
1
f
0
1
1
f
0
1
0
0
0
e
f
f
e
f
0
0
0
1
1
1
1
1
1
1
1
0
0
0
1
1
0
0
0
2
e
f
1
0
f
f
f
f
0
0
0
1
1
1
0
0
0
0
f
f
1
0
0
0
f
0
0
f
e
0
2
0
0
0
f
0
1
0
1
1
0
0
1
0
0
0
0
f
1
0
0
0
2
1
0
e
0
0
1
1
0
1
0
1
0
0
0
0
f
f
1
0
f
0
0
0
1
2
2
3
1
f
0
e
0
1
0
0
1
0
0
f
0
0
f
f
0
f
1
0
1
1
2
0
1
3
2
1
1
0
f
e
f
1
1
f
f
f
f
f
f
f
f
0
1
1
1
1
1
1
0
0
0
0
1
2
3
0
f
f
e
0
0
f
e
f
f
0
0
f
0
1
2
1
0
0
0
0
f
f
e
e
1
1
1
0
1
f
e
1
e
e
f
f
0
0
e
f
f
1
2
0
0
f
f
f
f
e
e
f
f
0
0
0
1
0
e
0
e
e
f
0
f
f
f
f
0
1
2
0
f
f
f
d
f
f
e
e
e
f
0
0
0
1
0
0
e
e
0
f
0
0
f
0
1
2
1
f
f
e
f
f
f
f
0
f
f
f
1
1
f
1
2
1
0
0
f
f
f
f
0
1
1
1
0
e
f
f
f
f
f
0
1
1
1
0
1
0
0
1
1
2
0
f
0
0
0
f
f
f
0
0
f
e
f
f
f
0
0
1
0
0
f
f
f
1
0
1
0
2
0
0
0
0
0
f
f
e
e
f
e
f
0
1
0
1
0
1
1
1
0
0
e
f
1
1
0
1
0
0
1
0
f
0
f
e
f
0
f
0
0
1
1
1
1
1
2
2
0
0
2
f
0
1
0
1
1
2
2
1
1
0
1
0
0
1
1
1
1
2
2
1
2
3
2
2
f
0
2
1
1
0
1
2
1
0
2
2
1
2
1
2
2
2
2
2
2
2
2
2
2
1
1
2
0
0
1
0
0
1
1
2
1
1
1
2
2
1
1
2
1
2
2
2
1
2
1
1
2
0
1
3
1
0
0
0
0
0
2
4
2
1
1
1
2
1
1
1
1
2
1
2
2
2
1
1
1
0
1
2
0
0
f
0
0
0
0
2
0
0
1
1
1
2
1
1
2
1
1
1
1
1
0
f
0
f
0
0
1
0
0
0
0
0
1
f
e
e
1
1
1
1
1
0
1
0
0
f
0
0
f
0
f
e
e
f
0
0
0
0
0
0
0
f
f
f
f
e
e
e
0
0
0
0
f
f
0
1
0
e
d
e
0
0
0
0
0
0
0
0
0
0
0
0
0
0
0
e
e
e
0
f
f
0
e
f
0
f
f
0
0
0
0
0
0
0
0
0
0
0
0
0
0
0
0
0
0
0
0
0
0
0
0
0
0
0
0
0
0
0
0
0
0
0
0
0
0
0
0
f
f
f
f
f
f
f
e
f
f
e
e
f
f
f
f
f
f
f
0
0
0
0
0
0
0
f
f
0
e
e
d
e
d
d
d
d
d
d
d
0
0
0
0
f
f
f
f
f
0
0
0
0
0
f
f
0
f
f
e
d
c
d
b
b
c
c
e
f
0
1
0
1
1
0
f
e
f
0
0
0
0
1
0
0
0
0
e
d
d
e
d
e
d
d
f
0
0
0
0
2
2
2
2
0
1
f
0
0
f
0
0
0
f
f
0
f
e
0
0
e
e
f
e
e
e
e
e
0
1
1
1
1
f
1
0
f
2
0
1
0
0
0
1
1
0
0
0
0
0
0
0
1
0
0
0
0
2
2
1
1
0
0
0
f
1
1
0
0
0
0
1
0
0
0
0
1
1
1
2
1
0
0
1
1
2
2
2
1
1
0
0
f
1
1
0
1
1
2
2
1
1
0
0
0
1
1
0
0
1
0
0
1
1
1
2
3
2
0
f
0
0
f
0
1
1
1
1
1
0
0
f
f
f
1
1
0
0
f
0
1
1
1
2
1
2
f
0
0
f
f
1
1
1
1
2
2
1
0
0
d
e
0
f
f
e
0
0
1
1
0
1
1
0
1
1
e
0
0
0
2
2
2
2
3
2
1
0
d
e
0
f
e
e
f
1
1
1
0
0
0
2
f
0
0
f
0
1
2
2
3
3
2
2
1
1
e
e
0
f
f
f
1
1
2
1
1
1
1
1
e
f
f
0
0
1
2
2
2
2
2
3
2
1
0
0
1
0
f
0
0
2
2
1
f
f
0
0
f
f
0
f
0
1
1
1
1
2
2
2
2
1
0
1
1
1
1
0
1
1
0
1
0
e
d
d
f
0
0
1
2
0
1
1
0
1
2
2
2
1
0
1
1
1
1
1
0
f
0
1
0
d
d
f
f
0
0
0
1
f
f
f
0
1
1
1
2
2
2
1
1
1
1
0
0
0
1
1
f
e
c
e
0
0
0
0
f
e
e
f
f
f
0
0
0
1
1
1
1
1
0
0
f
f
0
0
e
f
e
f
f
0
f
1
f
d
f
e
d
d
d
e
e
0
1
1
0
f
f
f
e
0
0
e
e
e
d
1
f
0
f
f
e
d
e
d
d
d
d
d
e
f
0
0
f
f
f
f
f
f
f
e
f
e
f
f
f
0
0
f
d
d
d
d
d
e
e
e
f
f
0
0
0
f
0
f
f
0
0
0
1
f
1
e
f
0
0
f
d
e
f
e
f
f
0
0
0
0
0
f
f
e
f
f
0
0
1
0
1
0
1
e
0
0
0
f
e
0
f
f
0
0
0
0
1
0
0
0
e
f
f
0
1
0
0
1
1
1
1
1
0
0
0
e
0
1
0
0
0
1
1
1
1
0
0
0
f
f
f
0
0
0
1
1
1
1
2
1
0
0
0
0
1
2
2
1
1
1
1
2
2
0
1
0
0
0
e
0
1
2
2
1
1
e
f
f
0
0
0
f
1
2
2
1
1
1
2
3
2
1
2
3
2
1
1
2
0
1
1
1
0
f
0
0
0
0
0
0
1
2
1
2
2
1
1
0
0
1
1
3
2
2
1
2
0
0
0
0
0
f
0
0
0
0
0
0
0
0
1
0
0
f
f
f
0
0
1
1
2
0
1
0
f
1
0
1
2
0
0
0
0
0
0
0
0
0
0
0
0
0
0
0
0
0
0
0
0
0
0
0
0
0
0
0
0
0
0
0
0
0
0
0
0
0
0
0
0
0
0
f
f
0
0
f
e
d
e
1
0
0
0
0
0
0
0
0
0
0
0
0
0
0
0
0
0
0
e
e
e
e
f
d
d
f
0
0
2
f
e
0
f
e
f
0
0
0
0
e
0
1
f
e
e
d
c
d
f
0
d
f
0
f
1
1
0
1
2
1
0
0
0
0
0
0
1
e
1
1
1
f
e
c
c
b
e
f
f
0
1
0
0
0
0
0
0
f
1
2
2
1
0
0
0
d
1
0
1
0
0
0
f
f
0
1
1
0
0
f
0
e
e
f
f
f
f
0
1
2
2
0
f
2
1
2
2
0
f
0
f
f
1
1
1
1
1
0
1
0
0
1
0
0
1
2
1
2
f
0
e
1
1
e
f
f
f
f
0
0
1
1
1
2
2
1
1
1
1
1
1
1
3
2
2
2
0
e
e
0
0
e
f
f
f
0
0
f
1
1
1
1
1
1
0
0
1
2
2
2
1
4
4
0
0
0
1
0
e
e
f
f
f
0
f
f
0
1
2
2
1
0
1
1
1
1
1
1
1
4
4
2
0
0
0
0
e
e
d
e
e
e
f
f
0
1
0
0
0
0
f
0
0
1
1
1
2
4
6
2
f
0
e
0
f
e
e
d
e
f
0
0
0
1
1
1
1
1
0
0
f
f
0
1
1
4
4
3
0
0
0
0
0
e
d
c
e
f
1
1
1
1
1
2
2
1
0
f
f
f
e
e
f
f
0
1
f
f
f
f
0
e
c
c
f
0
1
1
1
2
2
2
2
1
f
f
e
e
e
d
d
e
f
f
f
1
0
f
f
e
e
d
f
0
1
1
1
1
1
2
1
1
1
0
f
f
e
d
d
e
0
d
0
0
0
e
f
f
0
f
f
f
f
0
0
1
0
0
2
2
2
1
f
f
e
e
f
e
f
d
e
0
0
e
e
0
1
0
e
f
f
0
0
1
0
1
2
2
2
0
e
e
c
d
e
e
d
e
f
0
1
e
e
0
1
0
0
f
f
0
0
1
0
2
2
3
2
1
e
e
d
d
f
f
f
f
e
0
f
f
d
f
0
0
0
0
0
0
1
1
2
2
2
2
2
0
e
d
c
d
e
e
e
1
f
f
0
0
d
f
0
0
0
0
0
0
0
1
0
1
1
1
1
f
d
c
c
d
d
f
0
0
f
0
0
f
e
e
f
f
0
1
f
0
f
0
0
0
0
0
0
e
d
b
c
e
e
e
f
f
0
f
e
f
e
e
f
f
0
f
0
0
0
0
0
f
0
e
f
d
b
c
c
d
e
f
0
d
0
f
0
f
f
f
e
0
1
0
0
1
1
1
0
0
f
e
e
d
c
b
c
e
e
0
0
e
0
0
0
e
f
0
0
0
1
0
1
1
0
0
0
0
f
f
d
d
d
c
e
e
f
0
0
f
0
0
0
0
0
1
2
1
2
1
0
0
0
0
1
0
0
f
e
f
e
e
d
f
0
f
f
0
0
0
0
0
2
2
3
0
0
0
1
1
1
0
1
1
1
1
1
1
0
0
0
1
2
1
0
f
0
0
0
0
1
2
2
2
2
1
2
2
2
3
3
4
4
4
3
1
1
1
1
0
f
0
0
0
0
0
0
0
0
0
0
1
1
0
1
1
2
2
2
4
3
1
0
0
0
0
0
0
0
0
0
0
0
0
0
0
0
0
0
0
0
0
0
0
0
0
0
1
0
0
0
0
0
0
0
0
0
0
0
0
0
0
0
0
0
0
0
1
1
1
2
2
0
1
1
0
0
3
2
2
1
1
1
1
1
0
0
0
0
0
0
1
f
1
1
2
3
4
4
5
6
4
2
4
4
2
1
1
1
2
2
2
2
2
1
0
0
0
0
f
f
0
1
2
2
2
3
1
2
1
2
2
1
1
1
0
f
f
0
1
1
1
f
0
0
0
0
f
e
1
2
1
0
1
1
0
0
0
0
0
0
0
0
f
f
f
f
f
f
e
f
f
2
0
0
0
0
2
0
0
0
1
0
0
0
0
f
0
0
0
f
f
f
f
0
0
0
f
0
0
2
0
1
f
3
2
1
0
1
0
1
1
0
0
f
f
0
0
f
f
f
f
0
f
f
f
f
f
0
1
2
1
2
3
1
1
0
0
1
1
0
0
f
f
f
f
0
0
0
f
0
0
e
f
f
0
0
0
3
1
1
4
2
1
1
0
0
1
0
0
0
0
0
0
0
0
f
f
f
f
f
e
e
0
0
0
2
1
2
3
2
0
0
0
0
0
f
f
f
f
0
0
1
f
0
0
0
f
f
f
d
f
0
0
2
1
1
0
1
0
f
0
f
f
f
e
f
f
0
1
1
0
0
0
0
0
f
d
d
d
0
1
2
1
0
0
0
f
0
0
1
0
0
f
f
f
0
0
0
0
0
1
0
0
f
e
c
c
0
1
1
2
f
f
e
f
f
0
0
1
0
f
f
0
0
1
0
1
0
0
1
2
1
1
f
e
2
f
1
2
0
f
f
0
e
0
0
0
0
0
0
1
1
1
0
1
1
1
1
1
3
2
2
0
2
0
1
1
0
f
0
0
1
0
0
0
1
1
1
2
1
1
1
1
2
2
1
2
1
0
1
3
1
0
0
0
1
f
0
0
1
1
0
1
3
2
2
3
2
1
1
1
2
2
2
2
1
0
2
1
2
1
0
0
0
f
0
1
2
1
1
2
2
1
1
2
1
2
2
1
1
1
1
2
1
0
3
1
1
0
0
1
0
0
f
f
0
1
0
1
1
0
2
2
1
2
1
1
0
0
1
2
0
1
4
2
0
1
0
1
1
0
f
e
f
1
1
f
0
1
1
0
1
1
2
1
0
f
0
1
0
1
4
3
1
0
0
0
0
0
e
e
0
0
0
0
0
0
0
1
0
1
1
0
f
f
f
0
1
0
1
2
0
0
f
0
1
0
f
f
0
f
0
0
0
1
0
1
0
0
0
0
f
f
f
f
f
0
f
2
f
f
1
1
2
f
f
f
f
0
f
0
1
0
0
0
1
0
0
0
f
f
e
f
f
f
f
1
0
f
1
1
0
0
0
f
f
0
0
0
0
0
f
0
0
0
f
f
f
e
f
f
e
f
f
f
1
0
0
f
f
f
f
0
1
f
f
f
0
0
0
0
0
0
f
f
f
e
f
0
e
e
0
f
0
0
0
0
f
0
0
0
0
f
f
f
0
0
0
1
0
0
0
f
e
f
f
f
e
0
1
0
0
0
0
f
0
1
0
f
f
f
e
f
0
f
f
2
0
0
0
e
d
d
d
d
d
e
0
0
0
0
0
0
f
e
e
0
1
1
1
0
f
0
1
0
f
f
0
f
f
f
0
f
0
1
0
0
0
0
0
0
0
1
1
0
f
0
0
1
0
0
1
f
f
1
1
1
0
0
1
1
0
0
0
0
0
0
0
0
0
0
0
0
0
0
0
0
0
0
f
0
0
0
0
0
0
0
0
0
0
0
0
0
0
0
0
0
0
0
0
f
f
0
f
f
f
f
0
1
f
0
e
f
e
e
e
f
f
0
0
0
0
0
0
0
f
f
0
f
f
f
f
e
d
d
c
c
c
d
d
e
d
d
e
e
e
1
1
0
0
0
0
0
f
f
f
f
e
e
e
f
e
b
a
b
c
d
d
d
d
e
0
0
0
0
1
0
0
0
f
f
f
e
e
e
f
e
f
0
0
0
f
0
0
f
0
0
f
0
f
0
1
3
2
1
0
0
0
f
f
f
d
e
f
0
0
1
2
3
2
1
0
0
1
1
1
1
1
0
f
0
2
1
0
0
f
f
e
f
e
e
f
0
1
1
1
2
2
2
1
1
1
1
0
0
0
0
0
f
0
f
f
0
f
0
f
f
e
f
f
0
1
1
1
1
2
1
1
1
0
0
0
0
0
1
1
1
1
f
0
e
f
0
0
f
0
1
0
0
0
1
2
1
1
1
0
0
0
1
0
0
f
0
2
3
2
2
1
0
0
f
f
f
1
1
0
0
0
1
1
1
2
1
0
f
0
0
1
f
f
1
2
2
1
1
0
f
0
f
e
0
1
1
1
0
1
1
1
2
1
1
f
e
f
0
0
0
0
0
2
1
0
1
1
0
e
f
f
0
2
1
2
1
0
1
1
1
1
0
f
f
0
0
0
0
0
1
2
2
1
2
0
0
e
f
f
1
1
0
0
0
0
0
0
f
f
f
0
0
0
0
1
1
2
1
2
2
0
1
f
f
f
f
f
0
0
f
0
0
f
f
f
0
0
0
1
0
0
0
1
1
1
1
0
0
1
2
1
0
f
e
f
f
f
f
0
f
f
0
0
0
0
0
0
0
1
0
0
0
0
f
e
e
0
2
1
0
0
d
0
0
e
e
f
f
0
0
0
0
0
0
0
1
1
0
f
f
f
f
d
f
0
1
1
0
f
e
0
f
e
f
f
0
1
1
0
0
0
1
1
2
1
f
e
f
f
f
f
e
0
2
1
0
f
f
0
0
0
0
0
1
1
0
0
0
0
0
1
1
0
f
f
0
f
f
f
1
0
1
1
0
f
e
0
0
1
1
1
0
0
0
0
f
f
0
0
0
0
f
f
0
e
0
0
0
e
0
0
f
f
e
f
0
0
1
0
0
f
0
f
f
f
0
0
0
f
0
0
f
f
0
0
0
f
1
f
0
0
0
f
f
1
1
0
0
f
f
f
f
0
0
0
0
0
f
f
f
f
0
0
1
1
0
f
f
1
0
0
0
1
0
0
0
1
0
0
0
0
f
0
0
0
f
f
f
0
f
2
1
f
f
f
f
f
0
0
0
0
1
1
1
1
1
1
1
0
0
f
0
0
0
0
f
0
0
2
3
0
e
0
0
0
e
f
f
f
f
0
1
1
1
1
1
1
0
0
0
0
1
1
0
1
2
3
2
0
e
0
0
0
0
e
e
f
e
0
1
0
0
0
1
0
0
0
0
f
0
1
1
0
0
2
1
1
f
0
0
0
f
0
f
f
f
f
f
f
0
0
f
0
1
1
1
1
1
f
0
0
e
f
f
0
0
0
0
0
0
1
2
2
2
2
2
2
1
0
1
2
3
1
2
2
1
1
0
0
0
1
1
0
0
0
0
0
0
0
0
0
1
1
0
0
0
0
1
0
2
3
1
0
1
1
0
0
0
f
0
0
0
0
0
0
0
0
0
0
0
0
0
0
0
0
0
0
0
1
0
0
0
0
0
0
0
0
0
0
0
0
0
0
0
0
f
0
f
e
f
f
f
f
e
e
1
f
f
e
e
e
e
f
e
f
0
0
0
0
0
0
0
f
e
f
e
e
f
0
f
f
0
0
0
f
0
0
f
f
0
1
f
e
f
0
0
0
0
0
0
e
e
f
f
f
f
f
f
0
e
f
0
0
1
0
f
f
f
f
1
0
f
0
0
0
0
f
1
e
f
f
0
1
0
0
0
0
0
1
0
0
1
1
0
0
0
f
0
0
f
f
e
f
0
0
0
0
f
f
0
0
0
f
f
f
f
0
0
1
1
1
1
1
0
1
1
0
0
f
e
f
0
0
0
0
f
f
0
f
f
f
f
f
0
0
f
f
0
0
0
1
1
1
1
0
f
e
e
1
0
f
1
0
0
0
0
f
f
f
f
0
0
1
f
f
f
0
1
1
1
2
2
1
1
f
0
0
f
f
1
0
1
f
f
f
e
f
0
0
0
0
f
f
e
0
1
1
1
1
0
1
0
0
0
f
1
1
0
0
0
0
e
e
f
f
0
0
0
0
e
e
f
0
1
1
1
1
0
0
f
f
f
f
0
0
0
1
e
0
e
f
e
0
f
0
1
0
e
c
e
1
1
2
1
0
1
f
e
e
d
0
0
f
0
0
e
0
f
0
0
0
1
1
1
0
d
c
e
0
0
2
1
0
1
0
e
e
d
f
0
0
1
0
f
f
f
0
0
1
0
1
1
f
d
c
e
0
0
1
1
1
1
f
f
f
f
1
0
1
0
f
e
f
0
f
1
0
0
0
0
e
d
e
f
0
0
0
1
1
0
f
f
2
2
1
0
f
e
0
1
1
0
1
1
1
0
0
0
f
f
f
0
1
1
2
1
1
0
f
f
2
2
1
0
f
0
2
0
1
0
1
2
1
1
1
0
0
0
0
1
2
1
2
1
1
1
f
f
1
3
1
0
0
0
1
0
0
0
1
2
2
1
0
0
f
0
1
2
2
1
1
1
2
1
0
f
1
3
1
0
f
1
1
1
0
0
1
2
2
0
f
f
0
1
2
2
1
0
0
0
1
1
1
0
2
3
1
0
0
0
1
1
0
0
1
1
1
f
e
f
0
0
1
1
1
1
f
f
0
1
2
1
1
1
1
f
f
f
0
1
0
1
2
1
1
f
f
f
0
0
1
1
0
0
0
f
1
1
2
0
0
2
0
0
f
1
1
1
1
1
1
1
1
f
f
f
0
f
0
0
0
0
0
0
2
1
1
f
e
1
0
0
1
1
2
1
1
1
0
1
1
0
f
f
0
f
f
f
0
0
1
0
1
2
1
0
e
f
0
0
0
1
0
0
1
2
1
2
1
1
1
0
f
e
f
f
f
f
f
0
1
2
f
0
f
f
1
0
0
e
e
e
e
1
2
1
1
1
1
0
0
f
f
f
f
f
0
0
1
0
0
f
0
f
0
0
0
f
d
d
e
0
1
0
0
0
1
0
0
f
f
0
0
0
f
e
0
0
f
0
2
0
0
0
0
f
0
1
f
0
0
f
f
f
f
e
f
0
1
1
f
f
d
e
e
d
d
d
1
0
0
0
0
0
0
1
1
1
0
0
f
e
d
e
e
d
e
e
e
d
e
e
f
f
1
f
0
0
0
0
0
0
0
0
0
f
f
f
f
e
0
0
f
e
f
f
f
e
f
0
1
0
f
0
0
0
0
0
0
0
0
0
0
0
0
0
0
0
0
0
0
f
0
0
0
0
0
0
0
0
0
0
0
0
0
0
0
0
0
0
0
0
0
1
1
2
1
2
2
0
e
f
0
1
2
2
2
1
1
0
0
0
0
0
0
0
0
0
1
1
2
2
2
1
1
2
0
1
0
0
0
1
1
1
2
3
1
f
f
0
0
0
0
f
f
0
0
0
1
1
2
2
2
0
1
1
0
1
0
1
0
0
2
2
3
0
f
f
0
0
0
f
d
f
f
f
0
0
1
0
0
1
0
0
0
0
0
0
0
1
1
1
2
1
1
0
1
0
0
e
f
0
e
f
0
0
0
1
1
1
0
1
0
1
1
f
f
0
1
0
1
1
2
2
1
0
f
f
e
f
0
f
0
0
0
0
0
0
0
0
0
0
0
f
f
f
0
0
1
1
2
2
0
0
e
0
e
0
0
f
0
1
1
1
0
0
0
0
1
0
0
f
f
e
0
1
1
2
3
1
1
1
e
0
f
f
1
0
f
1
0
0
0
0
0
0
0
0
0
f
e
0
0
f
1
4
4
0
0
0
d
0
0
0
0
0
f
0
1
0
0
0
0
f
0
0
0
f
f
0
0
e
0
4
2
0
f
0
f
0
0
0
0
0
0
0
2
1
0
1
f
f
0
0
f
0
f
f
f
f
0
4
1
0
e
f
e
e
e
f
0
1
1
1
2
1
1
1
f
e
f
f
f
f
0
f
f
f
1
3
1
f
e
0
f
f
f
f
0
1
1
1
1
1
1
1
0
f
f
f
f
f
0
f
0
0
1
2
f
e
e
0
f
f
f
0
0
1
2
1
1
1
1
1
0
f
0
f
f
0
1
0
0
2
2
1
0
e
0
0
0
d
f
0
1
2
2
2
1
1
2
2
1
0
0
0
0
0
0
0
1
1
1
2
1
e
0
0
0
e
0
0
1
1
2
2
2
2
2
2
0
f
0
0
0
1
0
0
0
0
2
1
1
f
0
0
f
e
0
f
1
2
1
2
1
2
2
2
0
0
0
1
1
1
0
1
0
1
2
1
2
f
f
0
f
0
0
0
2
2
1
1
1
2
2
1
0
0
0
1
2
1
1
1
1
1
1
0
0
f
0
f
f
0
0
0
1
2
1
1
2
2
2
1
0
0
0
1
1
0
1
1
0
0
1
0
f
f
f
f
e
0
1
1
1
0
1
1
0
1
2
1
f
0
0
1
1
1
1
1
1
2
1
0
e
0
f
0
1
1
1
1
1
f
0
0
1
1
1
0
0
0
0
0
0
0
1
1
1
1
0
f
0
0
0
f
0
0
0
1
0
f
f
0
0
0
1
0
0
0
0
0
1
0
1
1
1
2
1
f
f
1
0
f
f
1
1
f
e
f
f
f
0
0
0
1
1
1
1
1
1
1
0
0
1
3
1
1
0
1
0
0
0
f
0
f
e
f
f
0
f
0
0
0
1
1
1
1
0
1
1
1
2
2
2
0
1
f
0
0
0
f
e
e
f
e
f
0
0
0
1
1
1
1
1
1
0
1
1
1
1
2
3
2
0
0
0
0
0
1
0
f
f
0
f
e
e
f
0
e
f
0
0
1
0
1
0
1
2
2
2
0
0
0
0
0
0
0
1
2
2
1
0
f
f
f
1
1
0
0
0
1
0
f
e
0
0
f
0
f
0
0
0
0
0
0
0
0
f
0
0
0
0
f
0
1
e
f
0
0
f
0
f
0
e
e
f
0
0
0
0
0
0
0
0
0
0
0
0
0
0
0
0
0
1
0
0
0
0
0
0
0
0
0
0
0
0
0
0
0
0
0
0
1
0
1
1
1
1
2
1
2
2
0
2
3
3
2
2
2
1
1
1
0
0
0
0
0
0
0
0
1
1
1
2
3
2
3
3
3
0
1
1
1
0
1
2
3
3
2
2
0
0
0
0
0
0
f
0
0
2
2
3
3
2
2
3
2
2
2
1
1
1
1
0
1
0
1
2
0
f
0
0
0
1
0
2
2
1
1
1
2
1
1
1
1
1
0
0
0
0
f
f
e
f
f
e
e
f
2
2
0
0
1
0
2
1
1
1
0
f
0
0
0
1
0
0
0
f
0
0
f
f
e
e
e
2
2
2
0
1
0
1
1
f
0
0
0
0
0
1
1
2
1
2
2
1
1
0
0
0
e
d
e
1
0
1
0
2
0
1
1
0
f
f
0
0
0
0
1
1
2
2
1
0
1
0
0
f
e
d
c
e
0
1
1
1
f
0
1
0
0
1
0
0
1
0
0
1
2
2
2
0
0
1
0
0
f
c
c
d
1
1
0
0
0
1
2
1
1
1
1
0
0
f
f
0
1
1
1
1
f
0
0
0
0
f
d
e
f
0
0
e
0
2
1
1
1
1
0
f
f
e
e
0
1
0
1
1
1
0
1
0
1
0
d
c
e
0
f
0
1
2
2
1
1
0
0
f
f
e
e
1
2
1
0
1
1
1
2
1
2
1
e
e
f
0
f
0
1
2
2
1
0
0
0
f
f
f
f
1
3
2
1
1
2
2
1
1
2
3
1
f
f
1
f
0
0
2
2
0
0
f
0
f
e
e
f
1
2
1
2
1
1
1
1
1
1
2
1
0
f
e
f
1
f
1
f
f
0
0
f
f
f
0
0
1
2
1
0
0
1
1
1
2
1
2
f
f
f
f
0
1
e
e
e
f
0
f
0
f
f
0
1
2
2
0
0
f
0
1
2
2
1
1
0
f
e
f
1
2
1
f
0
f
e
f
f
f
1
2
1
1
0
e
e
f
0
0
0
0
2
0
f
f
e
f
0
2
1
0
0
d
d
f
0
0
1
1
1
1
f
f
f
0
0
0
0
0
1
0
f
f
f
1
1
2
1
1
e
d
d
f
0
0
1
1
0
0
f
f
0
1
0
0
0
1
1
0
c
0
f
e
f
2
1
1
e
e
e
f
f
0
1
0
1
0
0
0
0
1
1
0
0
0
0
f
e
f
e
f
0
2
0
0
f
f
f
0
f
0
0
0
0
1
2
1
0
0
0
0
0
f
e
e
f
f
f
0
f
1
0
0
e
e
f
1
0
0
0
0
1
1
1
1
1
0
0
0
f
d
e
e
e
e
0
0
f
1
0
1
f
f
f
0
0
0
0
0
1
1
1
1
1
0
0
f
f
f
f
f
e
e
f
0
0
0
3
3
1
0
0
1
0
0
0
0
0
0
0
1
0
1
0
0
f
f
0
1
0
f
e
0
0
0
1
4
4
2
1
1
1
0
1
0
0
0
0
0
1
0
e
e
f
f
f
1
1
f
0
0
0
0
2
f
1
3
3
3
4
1
2
1
1
0
0
0
0
0
0
1
2
0
0
0
0
0
f
0
0
0
0
1
1
1
1
3
3
3
3
3
2
3
4
2
2
3
2
1
2
3
1
0
1
0
0
0
0
0
0
0
f
f
1
2
1
1
2
2
2
0
2
2
2
1
1
2
0
1
1
f
0
0
0
0
0
0
0
0
0
0
0
0
0
0
0
0
0
0
0
0
0
0
0
0
0
0
0
0
0
0
0
0
0
0
0
0
0
1
0
0
0
0
1
1
0
0
0
1
1
1
1
2
1
1
1
0
0
0
0
0
0
0
1
0
1
0
0
0
f
e
e
f
0
0
e
0
1
2
2
2
1
1
2
1
f
0
0
0
0
0
0
1
1
1
1
1
1
0
0
0
1
0
0
1
1
1
3
2
3
2
1
2
1
1
2
0
0
1
0
2
1
0
0
f
0
0
0
0
0
f
0
0
0
1
2
2
1
2
1
2
2
1
2
1
0
0
1
1
f
0
0
1
f
0
0
0
e
f
f
0
0
1
1
1
1
1
1
1
1
2
2
1
0
0
0
0
0
0
0
0
0
0
f
f
0
0
0
0
0
1
1
1
1
1
1
2
3
3
2
0
0
0
0
f
0
0
0
0
0
0
0
0
f
0
0
0
0
1
1
1
1
1
1
2
2
3
2
0
0
0
0
0
f
0
0
0
0
0
f
0
0
1
1
0
1
1
0
0
1
1
1
2
3
3
2
1
0
0
f
0
1
f
0
0
0
0
f
0
0
1
0
0
0
0
f
f
f
f
0
1
3
3
1
f
0
f
0
2
1
0
0
0
0
1
1
1
0
1
1
0
1
f
f
e
e
e
e
0
2
3
2
f
f
e
1
2
2
0
f
f
0
0
1
1
1
2
2
1
0
f
f
e
e
d
d
f
1
2
3
1
0
e
1
0
2
1
0
f
f
0
0
1
1
2
2
1
f
f
f
f
e
e
e
e
d
f
1
f
1
0
0
0
1
1
0
f
0
0
0
0
0
1
0
f
f
f
f
f
f
e
e
e
d
d
e
f
0
1
1
0
f
f
0
f
0
1
0
0
0
0
1
0
0
f
f
f
0
0
f
f
e
e
e
0
0
0
0
e
0
0
0
f
0
0
0
f
0
0
f
f
f
0
1
1
1
1
0
0
e
e
e
f
f
1
1
f
0
0
0
f
f
f
f
f
0
0
f
e
f
f
1
2
0
0
0
0
f
c
d
f
0
1
0
0
0
0
1
0
0
f
f
f
f
f
e
f
e
0
1
2
2
1
f
f
f
c
f
0
1
1
0
1
0
0
1
1
1
0
0
0
f
e
f
f
0
1
1
1
1
0
0
e
e
e
0
f
1
2
1
1
f
0
1
1
2
1
1
0
0
f
f
f
f
1
1
1
1
1
f
f
0
f
f
f
0
2
0
0
f
1
f
0
0
2
1
1
0
0
0
f
0
1
0
1
1
0
0
f
f
e
0
1
1
0
f
f
f
0
f
f
0
0
1
1
1
1
0
0
0
1
0
0
1
0
f
f
f
e
f
0
0
0
0
f
f
f
e
f
f
f
0
0
1
0
1
2
1
1
1
1
0
0
0
0
e
e
f
0
0
0
2
1
0
0
f
f
f
f
0
0
f
0
1
1
1
0
0
f
0
f
f
f
f
e
f
0
0
0
1
1
2
1
1
1
1
1
1
1
1
1
1
0
0
0
f
f
f
f
e
f
f
e
f
0
0
0
1
2
0
1
3
3
3
3
2
2
3
2
1
1
2
1
f
1
1
0
0
0
1
0
0
0
0
0
0
0
0
0
0
0
0
1
2
3
2
2
2
3
3
2
1
1
1
1
1
2
0
0
0
0
0
0
0
0
0
0
0
0
1
0
1
0
2
1
2
1
1
1
0
f
e
e
f
0
0
0
0
0
0
0
0
0
0
0
0
0
0
0
0
0
0
0
0
0
0
0
0
0
0
0
0
0
0
0
0
0
0
0
0
0
0
0
0
0
f
0
0
0
0
0
0
f
f
f
1
1
0
0
0
0
0
0
0
0
0
0
1
0
0
1
2
1
3
4
2
3
3
4
5
5
3
1
0
0
1
1
1
1
1
0
0
0
0
0
1
0
f
1
2
3
2
1
1
2
1
1
1
2
2
0
0
0
0
f
f
0
0
1
1
0
0
f
2
f
1
3
3
1
2
1
1
0
1
1
1
0
0
1
0
2
1
0
0
f
f
e
f
0
0
0
1
1
3
3
2
2
1
1
0
0
0
f
f
f
0
0
1
1
0
0
1
1
0
0
f
f
0
1
f
2
2
2
2
1
1
1
0
f
f
f
d
d
e
0
0
1
1
0
f
f
f
0
f
1
0
1
f
2
3
1
0
1
0
1
0
f
0
e
d
d
f
1
2
2
2
f
e
d
e
d
0
1
0
f
0
1
3
1
0
0
f
0
0
0
f
e
d
e
0
2
2
1
0
f
d
c
b
d
f
0
0
f
1
0
1
1
f
e
f
f
e
f
e
d
d
f
1
2
2
1
0
e
d
c
b
c
e
f
0
2
2
1
1
0
f
e
f
e
e
e
e
e
e
0
2
3
2
1
e
d
d
c
c
d
f
0
0
2
2
1
1
0
e
f
f
0
f
f
0
1
1
1
2
1
0
f
e
d
d
e
d
d
f
0
0
3
2
1
0
0
e
f
f
0
1
1
2
2
2
1
1
1
f
f
e
f
f
0
3
1
f
0
1
2
3
1
f
0
0
e
0
1
1
1
1
1
1
1
1
0
0
0
1
1
0
2
3
2
2
2
0
1
2
3
0
1
f
f
0
1
0
1
1
1
1
1
1
0
1
1
1
1
1
2
2
3
3
1
0
1
2
3
1
0
1
0
1
0
0
1
0
1
2
1
1
0
0
1
1
1
1
2
1
1
3
1
0
1
3
2
0
0
0
1
1
1
1
0
1
1
2
1
1
0
0
2
1
2
1
1
2
3
3
0
0
2
3
1
0
e
f
1
1
0
0
0
0
1
1
0
0
1
1
1
0
2
1
1
1
2
2
f
f
1
3
1
0
0
f
0
0
0
e
f
0
1
0
0
0
1
1
f
1
2
0
1
1
2
0
1
1
0
0
1
0
0
f
0
0
0
f
f
f
0
1
1
1
1
1
0
1
1
f
f
0
1
1
1
0
f
0
1
0
e
0
2
0
0
e
e
f
0
0
0
1
1
1
0
1
1
f
e
0
f
2
0
1
2
2
1
f
f
0
1
1
f
0
f
0
0
0
0
0
1
0
0
0
f
f
f
f
0
0
0
1
1
2
1
f
0
f
0
0
0
0
0
0
0
f
0
0
f
f
1
1
f
f
e
f
0
1
0
0
0
1
0
0
f
f
0
f
0
0
0
1
1
0
0
0
0
f
0
0
f
f
e
e
f
2
0
0
0
0
0
f
f
f
f
0
0
0
1
1
2
1
0
0
f
0
f
f
0
f
e
e
0
0
0
0
0
0
0
f
d
e
f
e
f
f
0
0
0
f
f
0
f
e
d
d
d
e
0
e
f
0
0
0
0
0
0
f
e
d
d
d
c
d
d
d
c
9
c
d
d
d
d
c
d
e
f
f
0
0
0
0
0
0
0
0
0
f
e
f
f
f
f
e
d
d
e
0
f
f
f
f
f
0
0
0
0
0
0
0
0
0
0
0
0
0
0
0
0
0
0
0
0
0
0
0
0
0
0
0
0
0
0
0
0
0
0
0
0
0
0
0
0
f
f
f
0
f
f
e
0
0
e
e
d
f
f
f
f
f
f
0
0
0
0
0
0
f
0
f
0
f
f
e
d
d
e
e
e
e
c
e
e
e
e
e
d
e
e
e
f
0
0
0
0
2
1
0
0
f
f
e
e
f
f
f
f
f
0
0
0
0
0
1
0
f
e
f
1
f
0
0
1
1
2
0
f
f
0
f
f
f
0
0
0
0
1
0
0
0
1
1
2
1
0
1
1
2
f
0
0
0
2
f
0
0
0
0
0
0
0
0
0
0
0
f
f
0
0
1
1
1
0
0
0
f
0
0
f
1
1
0
0
1
1
1
0
1
0
0
f
f
f
0
0
0
0
1
2
1
2
1
f
0
0
1
0
1
1
f
f
0
0
0
1
0
f
f
f
f
f
0
1
1
1
1
1
2
3
1
0
0
0
f
1
1
1
0
0
1
0
1
0
f
0
0
0
0
0
0
0
2
2
1
2
1
0
2
2
3
1
0
3
0
1
1
0
0
0
0
0
f
0
0
0
1
1
0
1
2
2
2
2
2
1
1
2
1
1
1
1
1
1
2
f
f
f
f
0
0
0
2
2
2
2
2
1
1
2
2
2
1
0
0
1
0
2
2
1
3
2
1
e
f
f
0
0
1
1
4
3
3
3
2
2
2
1
1
0
1
0
f
0
1
1
1
2
2
4
0
e
f
f
0
0
1
2
2
2
1
3
2
2
2
1
1
1
0
0
f
0
0
f
f
2
2
2
1
f
e
0
0
0
1
1
0
f
0
1
1
1
1
1
1
0
e
e
e
0
e
e
f
1
3
1
0
f
f
0
0
0
1
0
f
f
f
0
0
1
1
1
1
f
f
f
f
f
d
f
0
1
1
0
0
e
0
0
1
0
0
0
0
f
f
0
f
1
0
0
0
f
0
0
e
f
f
e
1
0
0
f
0
f
0
1
1
0
0
0
f
0
f
0
0
0
f
0
0
f
e
f
f
d
e
f
0
1
0
0
0
f
0
0
0
0
f
0
0
1
0
0
0
0
0
f
0
f
f
0
f
e
e
e
1
1
1
f
f
0
0
0
0
0
0
0
0
1
1
0
f
f
f
f
f
f
e
e
e
e
1
e
0
2
0
0
0
0
0
0
0
0
f
f
0
0
0
0
0
f
f
0
0
e
d
d
e
0
f
f
0
1
0
f
f
f
0
f
0
f
f
f
0
0
0
f
f
0
f
f
f
e
d
c
f
1
0
0
0
f
f
e
f
0
0
1
0
f
0
0
0
0
f
f
f
f
e
f
f
e
e
c
f
0
e
0
0
0
f
e
f
0
1
1
0
0
0
0
1
0
0
0
f
f
f
f
f
e
e
d
e
f
e
f
0
0
e
0
0
0
1
1
0
0
1
0
1
0
0
0
f
0
f
f
e
e
d
d
e
f
0
0
0
0
0
1
2
2
1
1
1
1
2
2
1
1
0
f
f
f
e
e
e
d
e
f
e
f
0
0
0
0
f
1
3
2
0
1
2
3
2
2
1
1
1
0
0
0
0
f
f
1
1
f
e
0
0
0
0
0
0
0
f
0
0
1
1
2
1
1
1
1
1
2
2
0
1
1
0
2
2
0
0
0
0
0
0
0
0
0
0
0
f
0
0
0
1
0
0
2
2
1
0
1
1
2
2
2
2
2
0
0
0
0
0
0
0
0
0
0
0
0
0
0
0
0
0
0
0
0
0
0
0
0
0
0
0
0
0
0
0
0
0
0
0
0
1
0
2
1
1
1
2
1
2
1
f
0
2
3
2
2
2
2
1
1
0
0
0
0
0
0
1
1
2
1
2
2
4
4
3
3
3
1
3
3
2
2
3
3
4
3
1
3
1
0
0
0
0
0
f
0
2
1
2
3
3
3
2
2
2
2
1
1
1
0
1
2
2
1
1
1
2
f
1
0
0
0
f
f
1
2
2
1
1
1
2
1
0
0
f
f
0
f
0
0
0
0
0
0
0
0
f
1
0
0
1
f
2
0
0
f
e
f
0
f
0
0
1
0
0
f
f
0
0
f
0
0
1
1
2
1
0
1
1
1
1
1
f
e
e
e
e
f
f
0
0
0
f
e
d
d
d
d
f
f
1
2
2
1
0
f
1
1
2
0
e
e
f
f
f
0
f
f
0
f
d
e
d
d
d
d
f
e
0
1
1
1
1
f
1
0
2
f
e
f
f
f
0
0
f
0
0
f
e
f
d
e
f
f
f
f
f
1
0
0
0
f
0
0
0
f
f
0
0
e
f
f
f
f
1
0
0
f
f
f
0
0
0
f
0
1
0
f
f
0
f
0
f
0
0
0
f
e
f
f
0
0
1
1
1
0
f
0
f
0
0
0
2
1
1
e
f
1
e
0
f
0
f
f
f
e
e
0
1
1
1
0
0
0
0
0
f
0
1
1
1
1
f
f
0
0
e
e
e
f
f
f
f
0
0
1
2
2
2
0
0
f
f
f
0
0
1
0
1
1
0
f
1
0
e
f
e
f
f
0
0
1
2
2
2
2
0
0
0
0
0
0
f
0
1
2
2
0
0
1
1
f
f
2
e
0
0
0
0
1
1
1
1
0
0
0
0
0
1
0
f
1
2
2
3
1
2
1
1
f
1
2
1
1
1
0
0
0
0
f
1
1
1
0
1
2
1
0
0
1
0
2
4
3
0
2
f
f
1
3
1
1
0
0
f
0
f
0
0
1
1
1
1
3
3
1
1
2
1
2
2
3
2
2
0
f
1
3
2
2
1
0
0
f
0
0
f
0
1
1
2
3
2
1
1
1
1
0
0
2
1
3
f
0
0
3
1
1
2
1
0
0
0
0
2
1
2
2
3
2
2
0
0
0
0
1
1
3
0
2
0
e
1
1
1
1
1
1
1
1
1
2
2
2
3
3
3
3
2
f
f
0
1
1
0
1
2
2
0
0
2
3
2
0
0
1
2
2
2
2
2
2
2
2
1
1
1
0
0
1
0
0
e
0
2
0
1
1
2
4
1
0
0
0
0
1
2
1
2
1
1
1
1
0
0
f
f
0
f
e
e
0
2
1
1
0
2
2
2
1
f
f
0
2
1
1
0
1
f
0
f
f
e
e
e
e
e
d
d
f
0
0
0
0
1
1
1
1
f
e
0
1
1
0
f
e
f
e
d
c
c
c
d
e
0
e
e
f
0
0
0
0
0
0
f
e
e
d
e
f
e
e
e
d
e
d
d
d
c
d
d
0
f
e
0
1
0
0
0
0
0
0
e
d
d
d
b
d
d
d
c
b
b
c
c
c
d
d
c
e
f
f
0
0
0
0
0
0
0
f
f
f
d
c
b
b
c
d
c
d
c
d
e
d
d
d
e
f
f
0
1
0
0
0
0
0
0
0
0
0
f
f
f
f
e
e
e
d
d
f
0
0
f
f
0
0
0
0
0
0
0
0
0
0
0
0
0
0
0
0
0
0
0
0
0
0
0
0
0
0
0
0
0
0
0
0
0
0
0
0
0
0
0
0
0
0
0
f
f
f
f
f
f
f
0
f
e
e
f
0
f
e
f
f
0
0
0
0
0
0
0
f
f
0
f
f
e
e
e
e
d
d
d
f
e
f
f
f
f
f
e
e
f
f
0
0
0
0
0
f
f
f
e
d
c
d
e
f
d
b
a
b
c
e
e
0
0
f
0
e
d
e
f
0
0
0
0
0
0
1
0
f
e
f
0
1
1
1
f
f
f
d
e
0
0
1
1
f
f
e
f
e
0
0
f
f
f
1
0
e
e
0
0
f
1
0
f
0
0
e
e
f
0
0
1
0
f
e
e
f
0
0
0
f
0
1
0
f
f
f
f
0
0
0
f
e
d
d
e
f
f
0
1
1
0
f
0
f
0
f
1
1
0
1
0
0
f
1
0
0
f
f
f
c
c
e
e
f
0
1
1
2
1
0
0
e
f
f
2
2
0
2
1
0
0
0
0
0
0
0
f
d
d
f
0
0
0
1
1
2
2
2
1
f
0
0
1
f
1
1
0
f
0
0
f
1
1
2
f
f
f
0
2
1
0
2
1
2
1
2
2
1
0
2
1
f
2
1
0
0
0
f
0
1
3
3
1
0
f
1
1
1
1
1
1
1
3
2
1
2
1
0
1
0
1
1
0
0
0
1
1
2
4
2
0
0
0
1
0
0
0
0
1
1
2
1
1
0
1
2
0
1
f
f
0
1
0
0
1
3
4
3
0
0
0
0
0
0
0
1
2
1
2
2
0
f
1
0
0
0
f
f
0
0
0
1
1
2
2
1
1
0
1
1
0
0
1
1
1
2
0
1
1
0
0
1
1
0
f
0
0
0
0
0
1
1
1
1
1
1
1
1
0
1
1
1
1
1
1
2
0
0
1
0
2
1
0
f
0
0
1
1
0
0
1
2
1
1
1
1
f
0
f
0
2
2
2
0
0
0
1
1
0
0
f
f
0
f
0
0
0
0
1
1
2
1
1
0
f
f
f
0
0
1
1
0
f
f
0
0
0
f
0
f
f
e
e
f
0
0
1
0
1
1
0
f
f
e
e
f
f
f
0
0
e
f
0
0
0
f
f
f
f
e
e
f
f
0
0
0
0
f
f
e
f
e
d
d
d
f
1
f
0
1
0
0
f
f
f
e
e
f
f
0
f
0
f
0
0
0
f
f
f
d
c
c
d
e
0
f
0
1
0
0
0
d
e
d
e
f
0
0
0
0
f
f
0
f
f
0
0
d
d
d
e
e
f
d
0
0
1
0
0
c
d
e
f
0
0
0
0
0
0
f
0
0
0
0
0
f
