0
0
f
0
3
0
e
f
e
2
4
6
0
3
c
c
f
1
2
f
1
f
0
0
1
1
5
d
0
d
e
e
e
0
2
f
f
1
f
0
f
f
2
1
e
0
5
1
4
f
f
1
5
e
0
3
1
2
f
0
3
0
1
3
3
0
0
f
0
2
3
e
f
e
e
1
1
1
f
b
1
0
1
1
1
e
f
3
0
0
0
1
0
e
a
1
0
1
f
3
a
2
3
0
0
2
1
1
1
f
0
2
4
1
3
0
0
0
f
2
4
2
0
e
1
0
0
0
f
1
2
1
7
e
d
1
e
b
0
1
2
2
d
e
2
1
1
0
0
0
b
f
3
1
f
c
f
e
b
2
3
5
2
1
b
f
f
2
0
f
3
2
0
e
0
3
2
1
0
2
2
e
1
2
1
0
0
f
f
e
2
1
1
1
b
0
e
0
c
f
1
d
0
4
3
1
b
2
2
2
2
2
1
f
f
1
2
f
e
0
0
e
f
1
f
0
0
1
a
1
2
b
3
1
0
f
1
0
d
1
0
0
0
3
f
0
0
2
f
1
2
2
e
f
f
c
0
2
1
0
6
0
f
4
f
f
3
0
1
3
d
f
0
e
1
0
1
f
0
2
0
2
b
0
2
c
f
3
0
4
2
2
c
f
e
2
2
2
f
f
1
0
e
2
d
1
0
f
1
0
f
1
0
0
f
f
f
1
5
3
f
d
f
e
b
1
f
1
f
4
2
2
d
f
0
3
f
1
1
2
f
3
3
e
f
f
2
0
2
0
2
d
c
f
2
2
3
2
0
2
1
e
2
2
2
1
3
0
9
0
c
f
2
1
1
f
f
2
f
1
d
0
1
f
f
1
c
1
d
1
3
f
2
d
d
1
3
f
1
b
1
0
0
0
1
0
e
3
e
0
e
0
3
0
d
1
0
e
d
0
b
2
2
2
4
1
0
2
1
1
f
2
d
1
3
2
c
d
2
f
4
1
2
f
f
0
1
c
e
3
d
2
4
3
1
e
2
e
2
f
1
2
4
1
1
f
f
2
0
f
f
e
2
3
e
2
f
3
f
4
3
2
0
2
0
e
0
1
f
0
2
3
3
e
d
0
2
0
5
0
e
f
2
f
1
1
3
f
1
0
0
e
1
1
e
2
f
0
d
e
1
c
e
1
2
1
a
2
2
0
2
0
f
f
e
2
0
f
e
0
1
0
0
1
1
1
1
1
d
2
3
f
1
2
2
2
f
d
0
3
6
1
0
2
0
f
1
2
0
f
3
0
e
0
d
d
2
3
4
0
1
1
1
5
0
d
f
0
f
1
0
3
1
e
2
e
d
e
f
4
2
e
3
1
0
2
6
1
2
2
e
0
5
f
1
1
0
2
e
2
e
e
4
2
3
f
f
1
f
1
1
e
d
e
0
2
0
2
1
2
2
f
e
f
d
f
f
5
2
2
d
0
f
2
b
5
1
f
2
1
1
1
2
1
0
d
1
0
f
1
6
0
0
f
1
2
4
1
1
3
0
1
f
4
0
e
1
1
b
1
e
0
0
3
f
0
e
1
2
2
c
f
e
e
1
3
1
0
0
2
f
4
f
1
d
1
e
3
e
6
e
e
0
f
d
f
0
3
f
d
4
1
1
2
7
3
4
3
1
0
3
f
1
d
2
0
e
1
f
0
3
1
2
0
f
f
2
f
e
1
d
f
2
2
1
f
2
1
3
1
4
0
4
2
3
1
e
1
2
0
f
2
2
1
1
0
1
d
1
1
c
1
e
1
2
d
f
f
3
2
3
4
e
1
0
0
e
6
0
1
e
e
e
0
1
f
1
0
2
0
0
f
1
e
2
0
d
e
4
f
f
2
3
0
4
1
1
c
0
0
f
f
2
0
0
e
4
e
0
3
e
f
e
f
d
1
0
f
1
1
0
3
1
e
1
4
3
0
2
f
3
0
d
0
0
5
e
1
3
0
5
1
0
0
f
e
3
d
1
0
2
0
5
f
3
0
1
1
2
d
e
0
d
f
0
3
3
1
0
1
4
4
1
f
1
f
1
0
3
d
1
3
1
0
0
e
0
e
e
d
0
e
3
0
1
4
1
1
1
d
2
1
3
f
d
0
0
1
0
2
0
1
f
0
0
0
d
f
f
3
2
f
1
f
d
e
4
3
e
0
d
0
0
f
0
0
f
2
e
1
e
1
0
3
1
c
0
2
3
3
f
1
3
1
1
1
e
f
2
d
0
f
0
4
f
f
f
1
5
0
e
0
0
1
2
e
2
0
1
0
2
1
2
e
f
f
2
2
0
1
2
f
e
1
4
f
0
f
7
b
1
0
e
e
3
2
1
0
d
4
e
1
1
1
d
0
e
0
1
3
0
0
2
3
2
f
2
f
2
4
0
d
e
e
1
2
d
e
1
1
1
1
0
e
3
1
4
2
2
3
3
f
e
e
e
2
2
f
0
1
2
3
e
5
3
2
2
1
1
f
0
2
2
e
1
1
2
e
4
2
0
2
f
f
2
0
0
0
1
2
0
f
f
2
3
f
0
f
c
1
e
0
f
f
e
1
1
1
f
2
1
f
2
1
1
1
f
0
e
d
0
1
3
5
2
2
1
f
1
3
1
f
f
0
3
0
2
f
4
d
2
f
f
c
d
0
2
d
0
0
2
d
d
3
2
e
d
2
2
1
5
f
f
1
1
1
f
f
0
1
1
0
2
1
2
2
e
2
0
c
2
1
2
3
2
1
0
f
3
1
f
3
2
d
1
1
2
2
1
2
2
4
c
0
f
e
1
3
f
1
d
f
e
2
e
4
2
2
e
e
1
0
b
0
c
0
1
0
0
0
f
2
1
0
f
2
d
0
e
1
1
e
0
0
c
e
0
f
d
1
e
f
e
f
4
1
1
4
0
f
2
2
1
1
0
f
e
2
0
1
2
e
d
e
2
5
0
1
0
4
0
0
1
4
e
f
2
f
0
f
d
e
0
3
0
f
1
1
e
f
1
e
2
2
f
f
d
f
c
e
d
f
1
1
0
2
0
0
d
4
1
0
1
3
1
0
3
f
3
e
0
2
2
f
6
e
f
d
1
0
4
2
1
d
1
0
2
2
3
1
1
1
b
1
c
2
1
3
0
1
f
2
2
4
d
0
2
b
4
0
f
f
0
2
3
f
1
0
d
f
1
0
0
d
0
f
2
1
0
1
1
f
2
0
2
f
f
0
d
3
1
1
f
2
c
2
3
f
e
3
0
1
f
0
c
3
5
f
4
f
2
2
2
3
3
0
3
e
e
2
c
2
f
d
e
e
0
0
0
e
0
4
3
1
1
e
f
0
0
f
0
2
3
3
3
d
0
1
2
0
0
1
c
f
d
d
3
0
2
1
0
c
0
0
0
e
2
3
d
f
a
0
0
0
3
3
1
1
0
3
0
1
1
1
f
f
3
d
2
2
0
2
3
c
2
0
1
3
1
0
2
c
1
2
3
2
0
2
4
d
1
1
5
0
f
1
a
d
e
e
0
f
d
2
3
e
b
3
0
e
f
0
d
1
5
1
1
e
3
3
1
2
1
0
0
0
1
3
c
2
2
f
1
3
2
1
f
e
2
2
2
2
f
e
3
1
2
2
0
1
0
3
4
f
2
3
3
1
0
4
d
e
f
f
3
e
4
1
3
f
c
f
0
f
1
1
1
2
3
0
0
2
4
1
2
0
1
0
2
3
2
2
e
2
e
2
3
3
3
f
f
e
e
1
4
0
f
0
3
2
3
2
f
c
0
0
c
e
0
5
e
f
f
1
0
2
0
2
2
0
3
0
f
4
1
e
2
3
1
0
1
1
f
f
3
2
e
c
2
2
1
0
e
0
0
d
4
2
e
f
2
f
f
1
1
5
3
1
f
d
2
2
c
2
e
d
1
1
1
2
3
1
2
f
e
1
1
1
4
1
1
2
f
2
3
2
0
1
1
f
e
1
3
1
d
2
9
0
f
0
f
4
2
0
d
1
1
3
f
2
0
1
1
f
e
d
b
f
5
f
1
3
f
e
1
0
1
e
f
0
0
2
2
0
2
3
d
b
c
3
2
0
2
1
e
f
f
0
f
0
f
e
2
2
0
e
0
3
d
0
9
1
e
1
c
0
2
0
2
2
1
1
f
e
0
e
e
2
f
0
2
0
e
3
1
e
3
0
3
1
c
0
1
f
f
2
3
f
f
1
1
d
e
1
4
e
0
1
1
3
3
0
c
1
1
b
0
0
1
f
4
3
d
1
e
f
d
1
e
1
2
e
d
0
2
3
2
1
4
e
3
b
3
1
e
1
4
1
d
2
e
0
b
d
5
e
c
2
1
1
0
0
2
1
0
e
3
2
d
2
d
c
1
f
0
3
0
2
2
3
9
3
1
3
c
d
1
f
3
f
3
c
3
4
2
1
3
2
e
d
0
3
c
4
e
0
0
1
1
e
d
2
0
f
1
0
2
0
d
0
1
0
e
2
0
0
e
1
1
f
d
0
1
0
0
0
0
1
2
3
b
1
f
d
4
f
2
2
3
2
f
1
1
f
1
1
f
e
2
f
1
1
2
1
3
f
4
f
