9
2
b
3
2
c
4
0
1
e
1
b
d
d
f
2
2
1
e
2
1
0
1
f
e
c
a
1
4
3
d
1
1
d
e
c
d
b
0
1
e
3
b
2
4
3
4
a
3
3
3
e
e
d
e
c
2
3
4
d
e
b
e
b
2
2
4
2
4
c
3
4
2
d
d
0
3
1
e
f
2
e
e
3
2
c
0
e
c
d
4
d
c
0
e
2
2
f
1
2
0
c
e
0
4
3
0
3
f
2
b
2
c
3
2
c
f
2
f
d
f
0
e
e
a
2
c
1
3
2
c
a
0
2
0
c
a
c
d
c
2
0
f
1
2
a
2
b
1
e
2
2
4
2
d
b
4
c
4
e
1
d
0
0
2
4
a
b
d
2
4
3
1
f
3
e
f
3
0
2
2
3
c
1
d
e
0
2
e
1
e
f
c
c
b
0
f
1
2
4
c
b
f
a
d
3
0
3
4
e
d
0
3
3
a
3
a
1
1
0
1
1
c
2
e
1
3
b
1
d
b
1
d
2
0
3
4
3
c
2
d
e
c
4
b
a
3
0
2
1
0
3
2
d
1
d
2
f
0
3
1
e
d
1
1
c
e
a
d
d
0
b
0
0
2
1
9
1
0
4
3
3
f
f
c
2
a
0
f
2
8
0
b
1
5
2
3
f
4
0
a
8
1
f
b
d
f
f
f
1
3
1
3
1
c
f
0
b
1
d
